{
  "version": "1.0",
  "truncation": null,
  "padding": null,
  "added_tokens": [
    {
      "id": 0,
      "content": "[PAD]",
      "single_word": false,
      "lstrip": false,
      "rstrip": false,
      "normalized": false,
      "special": true
    },
    {
      "id": 1,
      "content": "[BOS]",
      "single_word": false,
      "lstrip": false,
      "rstrip": false,
      "normalized": false,
      "special": true
    },
    {
      "id": 2,
      "content": "[EOS]",
      "single_word": false,
      "lstrip": false,
      "rstrip": false,
      "normalized": false,
      "special": true
    }
  ],
  "normalizer": null,
  "pre_tokenizer": {
    "type": "Whitespace"
  },
  "post_processor": null,
  "decoder": null,
  "model": {
    "type": "BPE",
    "dropout": null,
    "unk_token": "[UNK]",
    "continuing_subword_prefix": null,
    "end_of_word_suffix": null,
    "fuse_unk": false,
    "byte_fallback": false,
    "ignore_merges": false,
    "vocab": {
      "[PAD]": 0,
      "[BOS]": 1,
      "[EOS]": 2,
      "!": 3,
      "$": 4,
      "'": 5,
      "(": 6,
      ")": 7,
      "*": 8,
      "+": 9,
      ",": 10,
      "-": 11,
      ".": 12,
      "0": 13,
      "1": 14,
      "2": 15,
      "4": 16,
      "5": 17,
      "6": 18,
      "7": 19,
      "8": 20,
      "9": 21,
      ":": 22,
      ";": 23,
      "=": 24,
      "?": 25,
      "A": 26,
      "B": 27,
      "C": 28,
      "D": 29,
      "E": 30,
      "F": 31,
      "G": 32,
      "H": 33,
      "I": 34,
      "J": 35,
      "L": 36,
      "M": 37,
      "N": 38,
      "O": 39,
      "P": 40,
      "Q": 41,
      "R": 42,
      "S": 43,
      "T": 44,
      "U": 45,
      "V": 46,
      "W": 47,
      "X": 48,
      "Z": 49,
      "_": 50,
      "a": 51,
      "b": 52,
      "c": 53,
      "d": 54,
      "e": 55,
      "f": 56,
      "g": 57,
      "h": 58,
      "i": 59,
      "j": 60,
      "k": 61,
      "l": 62,
      "m": 63,
      "n": 64,
      "o": 65,
      "p": 66,
      "q": 67,
      "r": 68,
      "s": 69,
      "t": 70,
      "u": 71,
      "v": 72,
      "x": 73,
      "y": 74,
      "z": 75,
      "«": 76,
      "»": 77,
      "À": 78,
      "Á": 79,
      "É": 80,
      "Ó": 81,
      "à": 82,
      "á": 83,
      "ã": 84,
      "ç": 85,
      "è": 86,
      "é": 87,
      "ê": 88,
      "í": 89,
      "ò": 90,
      "ó": 91,
      "ô": 92,
      "õ": 93,
      "ú": 94,
      "﻿": 95,
      "ra": 96,
      "de": 97,
      "os": 98,
      "as": 99,
      "qu": 100,
      "es": 101,
      "que": 102,
      "do": 103,
      "se": 104,
      "nt": 105,
      "co": 106,
      "me": 107,
      "ão": 108,
      "ar": 109,
      "in": 110,
      "da": 111,
      "ia": 112,
      "er": 113,
      "al": 114,
      "re": 115,
      "is": 116,
      "ou": 117,
      "ma": 118,
      "em": 119,
      "or": 120,
      "ta": 121,
      "to": 122,
      "pa": 123,
      "el": 124,
      "ha": 125,
      "ca": 126,
      "va": 127,
      "não": 128,
      "com": 129,
      "ro": 130,
      "en": 131,
      "lh": 132,
      "um": 133,
      "sa": 134,
      "ei": 135,
      "im": 136,
      "an": 137,
      "era": 138,
      "--": 139,
      "di": 140,
      "na": 141,
      "eu": 142,
      "la": 143,
      "..": 144,
      "it": 145,
      "no": 146,
      "nte": 147,
      "po": 148,
      "ri": 149,
      "gu": 150,
      "le": 151,
      "para": 152,
      "vi": 153,
      "inha": 154,
      "so": 155,
      "ti": 156,
      "ho": 157,
      "go": 158,
      "us": 159,
      "ap": 160,
      "mas": 161,
      "por": 162,
      "mo": 163,
      "ent": 164,
      "dos": 165,
      "ci": 166,
      "ção": 167,
      "fi": 168,
      "tra": 169,
      "des": 170,
      "lhe": 171,
      "li": 172,
      "lo": 173,
      "res": 174,
      "pe": 175,
      "tu": 176,
      "te": 177,
      "uma": 178,
      "con": 179,
      "ve": 180,
      "vo": 181,
      "nos": 182,
      "ver": 183,
      "io": 184,
      "cas": 185,
      "am": 186,
      "ui": 187,
      "ndo": 188,
      "sem": 189,
      "das": 190,
      "ch": 191,
      "mente": 192,
      "dis": 193,
      "mais": 194,
      "ça": 195,
      "Cap": 196,
      "itú": 197,
      "Capitú": 198,
      "per": 199,
      "ao": 200,
      "cu": 201,
      "como": 202,
      "...": 203,
      "minha": 204,
      "Não": 205,
      "qui": 206,
      "ando": 207,
      "mã": 208,
      "pro": 209,
      "nto": 210,
      "mos": 211,
      "ga": 212,
      "ir": 213,
      "ala": 214,
      "dade": 215,
      "dia": 216,
      "ser": 217,
      "ec": 218,
      "sim": 219,
      "par": 220,
      "bem": 221,
      "ias": 222,
      "ras": 223,
      "ter": 224,
      "mes": 225,
      "bo": 226,
      "mãe": 227,
      "elle": 228,
      "at": 229,
      "pre": 230,
      "tar": 231,
      "fo": 232,
      "ella": 233,
      "ex": 234,
      "cont": 235,
      "ua": 236,
      "esta": 237,
      "fa": 238,
      "gra": 239,
      "Es": 240,
      "pri": 241,
      "ria": 242,
      "vez": 243,
      "si": 244,
      "bra": 245,
      "nem": 246,
      "tem": 247,
      "cia": 248,
      "nde": 249,
      "ce": 250,
      "vel": 251,
      "un": 252,
      "est": 253,
      "olh": 254,
      "cab": 255,
      "ant": 256,
      "ac": 257,
      "ina": 258,
      "diz": 259,
      "casa": 260,
      "ros": 261,
      "disse": 262,
      "mu": 263,
      "foi": 264,
      "out": 265,
      "outra": 266,
      "pel": 267,
      "Qu": 268,
      "int": 269,
      "mui": 270,
      "su": 271,
      "car": 272,
      "du": 273,
      "fal": 274,
      "só": 275,
      "via": 276,
      "nh": 277,
      "cre": 278,
      "pos": 279,
      "esse": 280,
      "cor": 281,
      "del": 282,
      "pas": 283,
      "tor": 284,
      "tam": 285,
      "mim": 286,
      "ix": 287,
      "tudo": 288,
      "meu": 289,
      "olhos": 290,
      "Jos": 291,
      "José": 292,
      "ram": 293,
      "dar": 294,
      "cou": 295,
      "pois": 296,
      "cer": 297,
      "quel": 298,
      "pu": 299,
      "ões": 300,
      "pen": 301,
      "Dias": 302,
      "les": 303,
      "mor": 304,
      "inda": 305,
      "algu": 306,
      "eram": 307,
      "tambem": 308,
      "muito": 309,
      "Co": 310,
      "cob": 311,
      "ço": 312,
      "gora": 313,
      "ami": 314,
      "cê": 315,
      "ira": 316,
      "gos": 317,
      "min": 318,
      "faz": 319,
      "tão": 320,
      "depois": 321,
      "nta": 322,
      "sab": 323,
      "tos": 324,
      "pera": 325,
      "tas": 326,
      "inar": 327,
      "nada": 328,
      "gar": 329,
      "endo": 330,
      "val": 331,
      "ainda": 332,
      "alav": 333,
      "cha": 334,
      "las": 335,
      "palav": 336,
      "ab": 337,
      "já": 338,
      "tinha": 339,
      "vam": 340,
      "fe": 341,
      "fei": 342,
      "ns": 343,
      "vis": 344,
      "dre": 345,
      "tempo": 346,
      "assim": 347,
      "prime": 348,
      "mesmo": 349,
      "agora": 350,
      "tal": 351,
      "cos": 352,
      "pres": 353,
      "quando": 354,
      "lha": 355,
      "pou": 356,
      "Escob": 357,
      "Escobar": 358,
      "ções": 359,
      "inho": 360,
      "mi": 361,
      "iam": 362,
      "vida": 363,
      "dor": 364,
      "tura": 365,
      "lem": 366,
      "isto": 367,
      "ás": 368,
      "outro": 369,
      "Mas": 370,
      "mar": 371,
      "nas": 372,
      "rou": 373,
      "padre": 374,
      "seminar": 375,
      "ide": 376,
      "pli": 377,
      "sent": 378,
      "este": 379,
      "ouvi": 380,
      "eg": 381,
      "rin": 382,
      "parec": 383,
      "Pa": 384,
      "ba": 385,
      "cl": 386,
      "pae": 387,
      "ja": 388,
      "vol": 389,
      "pes": 390,
      "pergu": 391,
      "dizer": 392,
      "cousa": 393,
      "lho": 394,
      "até": 395,
      "jo": 396,
      "deix": 397,
      "asse": 398,
      "II": 399,
      "los": 400,
      "mal": 401,
      "acab": 402,
      "ge": 403,
      "he": 404,
      "bre": 405,
      "gum": 406,
      "ido": 407,
      "fos": 408,
      "rei": 409,
      "você": 410,
      "Eu": 411,
      "óde": 412,
      "mento": 413,
      "XX": 414,
      "ach": 415,
      "aqui": 416,
      "ceu": 417,
      "algum": 418,
      "pedi": 419,
      "ju": 420,
      "fez": 421,
      "Era": 422,
      "segu": 423,
      "melh": 424,
      "hora": 425,
      "inter": 426,
      "As": 427,
      "for": 428,
      "sei": 429,
      "ob": 430,
      "ris": 431,
      "estava": 432,
      "seminario": 433,
      "melhor": 434,
      "aos": 435,
      "ten": 436,
      "za": 437,
      "ze": 438,
      "quer": 439,
      "fer": 440,
      "rar": 441,
      "deu": 442,
      "espera": 443,
      "tava": 444,
      "itu": 445,
      "podia": 446,
      "della": 447,
      "cei": 448,
      "fin": 449,
      "tanto": 450,
      "home": 451,
      "quiz": 452,
      "nda": 453,
      "porque": 454,
      "logo": 455,
      "verdade": 456,
      "fosse": 457,
      "pé": 458,
      "rua": 459,
      "são": 460,
      "ne": 461,
      "póde": 462,
      "sar": 463,
      "palavras": 464,
      "ment": 465,
      "antes": 466,
      "lembra": 467,
      "pesso": 468,
      "fu": 469,
      "tou": 470,
      "der": 471,
      "Quando": 472,
      "pergunt": 473,
      "esti": 474,
      "ideia": 475,
      "sen": 476,
      "pi": 477,
      "met": 478,
      "eus": 479,
      "has": 480,
      "annos": 481,
      "filho": 482,
      "outros": 483,
      "falar": 484,
      "alguma": 485,
      "ni": 486,
      "sas": 487,
      "conf": 488,
      "fim": 489,
      "ças": 490,
      "qua": 491,
      "quella": 492,
      "pouco": 493,
      "Deus": 494,
      "cis": 495,
      "zes": 496,
      "ins": 497,
      "indo": 498,
      "porta": 499,
      "tina": 500,
      "ul": 501,
      "todos": 502,
      "então": 503,
      "che": 504,
      "ava": 505,
      "lor": 506,
      "sos": 507,
      "cio": 508,
      "Po": 509,
      "mão": 510,
      "ru": 511,
      "quei": 512,
      "cul": 513,
      "gado": 514,
      "cabe": 515,
      "nça": 516,
      "migo": 517,
      "cca": 518,
      "raz": 519,
      "isso": 520,
      "pela": 521,
      "homem": 522,
      "ado": 523,
      "tim": 524,
      "commigo": 525,
      "Que": 526,
      "Jus": 527,
      "Se": 528,
      "af": 529,
      "iu": 530,
      "ração": 531,
      "traz": 532,
      "grande": 533,
      "cabeça": 534,
      "Vo": 535,
      "ica": 536,
      "oume": 537,
      "Um": 538,
      "cal": 539,
      "lu": 540,
      "dous": 541,
      "ntes": 542,
      "meus": 543,
      "man": 544,
      "expli": 545,
      "passa": 546,
      "alguns": 547,
      "De": 548,
      "Em": 549,
      "sus": 550,
      "ós": 551,
      "men": 552,
      "fiz": 553,
      "liv": 554,
      "tural": 555,
      "Cos": 556,
      "ios": 557,
      "lá": 558,
      "tre": 559,
      "seus": 560,
      "respo": 561,
      "Bent": 562,
      "cção": 563,
      "aria": 564,
      "manh": 565,
      "cap": 566,
      "eira": 567,
      "entre": 568,
      "nossa": 569,
      "quelle": 570,
      "primei": 571,
      "loria": 572,
      "gas": 573,
      "idade": 574,
      "enh": 575,
      "contra": 576,
      "Bentinho": 577,
      "Ent": 578,
      "No": 579,
      "pal": 580,
      "inu": 581,
      "dava": 582,
      "mesma": 583,
      "está": 584,
      "itulo": 585,
      "ior": 586,
      "nun": 587,
      "fica": 588,
      "tarde": 589,
      "Justina": 590,
      "Cosme": 591,
      "cri": 592,
      "ima": 593,
      "mis": 594,
      "ph": 595,
      "sou": 596,
      "vas": 597,
      "repe": 598,
      "elo": 599,
      "noit": 600,
      "precis": 601,
      "manhã": 602,
      "Gloria": 603,
      "fala": 604,
      "sua": 605,
      "tei": 606,
      "ven": 607,
      "vesse": 608,
      "dei": 609,
      "ingu": 610,
      "todas": 611,
      "outras": 612,
      "fazer": 613,
      "sor": 614,
      "tro": 615,
      "esque": 616,
      "esto": 617,
      "rece": 618,
      "natural": 619,
      "guei": 620,
      "lon": 621,
      "Pois": 622,
      "Eze": 623,
      "Os": 624,
      "gem": 625,
      "ume": 626,
      "vei": 627,
      "vinha": 628,
      "cara": 629,
      "mora": 630,
      "quiel": 631,
      "duas": 632,
      "Ezequiel": 633,
      "gre": 634,
      "lei": 635,
      "ámos": 636,
      "queria": 637,
      "inh": 638,
      "rio": 639,
      ",--": 640,
      "menos": 641,
      "lher": 642,
      "peque": 643,
      "primeiro": 644,
      "bas": 645,
      "ita": 646,
      "lia": 647,
      "ára": 648,
      "come": 649,
      "almente": 650,
      "ellas": 651,
      "pelo": 652,
      "palavra": 653,
      "Você": 654,
      "Uma": 655,
      "ad": 656,
      "bus": 657,
      "ida": 658,
      "op": 659,
      "dou": 660,
      "seu": 661,
      "todo": 662,
      "elles": 663,
      "vir": 664,
      "sempre": 665,
      "pressa": 666,
      "Tu": 667,
      "bi": 668,
      "cto": 669,
      "dua": 670,
      "gesto": 671,
      "nha": 672,
      "ncia": 673,
      "prin": 674,
      "tes": 675,
      "qual": 676,
      "coração": 677,
      "saber": 678,
      "Ou": 679,
      "ag": 680,
      "be": 681,
      "fó": 682,
      "rer": 683,
      "ura": 684,
      "tamente": 685,
      "dias": 686,
      "cur": 687,
      "princi": 688,
      "Ao": 689,
      "San": 690,
      "cui": 691,
      "ião": 692,
      "nós": 693,
      "rim": 694,
      "sala": 695,
      "ços": 696,
      "essa": 697,
      "estar": 698,
      "escre": 699,
      "senh": 700,
      "cada": 701,
      "caval": 702,
      "vamente": 703,
      "resto": 704,
      "caso": 705,
      "Como": 706,
      "amigo": 707,
      "pessoa": 708,
      "Na": 709,
      "au": 710,
      "cen": 711,
      "fui": 712,
      "onde": 713,
      "tia": 714,
      "vos": 715,
      "depressa": 716,
      "alli": 717,
      "emos": 718,
      "eiro": 719,
      "tio": 720,
      "voz": 721,
      "acha": 722,
      "pensa": 723,
      "primeira": 724,
      "Padua": 725,
      "volta": 726,
      "noite": 727,
      "senhor": 728,
      "ata": 729,
      "abra": 730,
      "fle": 731,
      "nenh": 732,
      "oi": 733,
      "vor": 734,
      "panh": 735,
      "eli": 736,
      "leva": 737,
      "som": 738,
      "anti": 739,
      "corre": 740,
      "delle": 741,
      "responde": 742,
      ".»": 743,
      "Ha": 744,
      "Já": 745,
      "fec": 746,
      "vou": 747,
      "ran": 748,
      "cação": 749,
      "itas": 750,
      "entra": 751,
      "cidade": 752,
      "mãos": 753,
      "pare": 754,
      "prima": 755,
      "feito": 756,
      "insta": 757,
      "capitulo": 758,
      "veiu": 759,
      "Tam": 760,
      "feli": 761,
      "ora": 762,
      "ôr": 763,
      "refle": 764,
      "vae": 765,
      "cias": 766,
      "continu": 767,
      "gente": 768,
      "crip": 769,
      "Tambem": 770,
      "gen": 771,
      "il": 772,
      "pra": 773,
      "meio": 774,
      "ino": 775,
      "alma": 776,
      "mava": 777,
      "havia": 778,
      "can": 779,
      "prova": 780,
      "parti": 781,
      "atro": 782,
      "mulher": 783,
      "ixo": 784,
      "minu": 785,
      "senti": 786,
      "Assim": 787,
      "fóra": 788,
      "cum": 789,
      "hi": 790,
      "hou": 791,
      "hec": 792,
      "len": 793,
      "lan": 794,
      "var": 795,
      "dese": 796,
      "quem": 797,
      "haver": 798,
      "sobre": 799,
      "cios": 800,
      "bom": 801,
      "vezes": 802,
      "mundo": 803,
      "suas": 804,
      "clar": 805,
      "achei": 806,
      "pei": 807,
      "medi": 808,
      "toda": 809,
      "vamos": 810,
      "entrar": 811,
      "concl": 812,
      "seria": 813,
      "bocca": 814,
      "velho": 815,
      "certo": 816,
      "senhora": 817,
      "Foi": 818,
      "Man": 819,
      "gan": 820,
      "jan": 821,
      "mp": 822,
      "dent": 823,
      "asi": 824,
      "quar": 825,
      "espe": 826,
      "mamãe": 827,
      "sair": 828,
      "dif": 829,
      "itar": 830,
      "sol": 831,
      "enten": 832,
      "dizia": 833,
      "algumas": 834,
      "pessoas": 835,
      "preciso": 836,
      "Sancha": 837,
      "dentro": 838,
      "ces": 839,
      "gia": 840,
      "vent": 841,
      "quasi": 842,
      "espa": 843,
      "ntos": 844,
      "lado": 845,
      "usas": 846,
      "modo": 847,
      "conhec": 848,
      "promes": 849,
      "parte": 850,
      "creio": 851,
      "confes": 852,
      "razão": 853,
      "aquella": 854,
      "bei": 855,
      "dão": 856,
      "gou": 857,
      "tres": 858,
      "filha": 859,
      "nosso": 860,
      "morte": 861,
      "gosto": 862,
      "pedir": 863,
      "quanto": 864,
      "Então": 865,
      "VII": 866,
      "bar": 867,
      "bal": 868,
      "cla": 869,
      "cho": 870,
      "cres": 871,
      "ente": 872,
      "paz": 873,
      "cava": 874,
      "encia": 875,
      "digo": 876,
      "itos": 877,
      "cido": 878,
      "ficar": 879,
      "cudi": 880,
      "propri": 881,
      "uns": 882,
      "disseme": 883,
      "possi": 884,
      "costu": 885,
      "egre": 886,
      "mentos": 887,
      "nunca": 888,
      "repeti": 889,
      "naturalmente": 890,
      "Tudo": 891,
      "Cabra": 892,
      "Tal": 893,
      "fami": 894,
      "sal": 895,
      "th": 896,
      "usa": 897,
      "dando": 898,
      "papel": 899,
      "riu": 900,
      "aper": 901,
      "simp": 902,
      "teria": 903,
      "boni": 904,
      "graça": 905,
      "posto": 906,
      "final": 907,
      "missa": 908,
      "longe": 909,
      "Cabral": 910,
      "Minha": 911,
      "Nem": 912,
      "Vi": 913,
      "ef": 914,
      "fun": 915,
      "jus": 916,
      "lle": 917,
      "nar": 918,
      "pria": 919,
      "escu": 920,
      "maior": 921,
      "orde": 922,
      "tado": 923,
      "companh": 924,
      "notar": 925,
      "enta": 926,
      "desde": 927,
      "conver": 928,
      "amos": 929,
      "crean": 930,
      "Com": 931,
      "minhas": 932,
      "XXX": 933,
      "cular": 934,
      "livro": 935,
      "inguem": 936,
      "minutos": 937,
      "simples": 938,
      "Pe": 939,
      "bat": 940,
      "oc": 941,
      "olha": 942,
      "the": 943,
      "ves": 944,
      "estu": 945,
      "seja": 946,
      "isse": 947,
      "anno": 948,
      "cons": 949,
      "vocação": 950,
      "boa": 951,
      "muita": 952,
      "baixo": 953,
      "ultim": 954,
      "gregado": 955,
      "aggregado": 956,
      "costume": 957,
      "Agora": 958,
      "Sant": 959,
      "edade": 960,
      "ico": 961,
      "nho": 962,
      "ninguem": 963,
      "ém": 964,
      "devia": 965,
      "ntas": 966,
      "ouse": 967,
      "emp": 968,
      "ponto": 969,
      "rir": 970,
      "rios": 971,
      "vonta": 972,
      "amor": 973,
      "cabel": 974,
      "posi": 975,
      "passar": 976,
      "Per": 977,
      "Re": 978,
      "Tinha": 979,
      "ante": 980,
      "gio": 981,
      "jant": 982,
      "memor": 983,
      "tando": 984,
      "cado": 985,
      "comp": 986,
      "sau": 987,
      "gue": 988,
      "viu": 989,
      "horas": 990,
      "sub": 991,
      "rindo": 992,
      "acabou": 993,
      "interro": 994,
      "livros": 995,
      "falava": 996,
      "particular": 997,
      "promessa": 998,
      "vontade": 999,
      "Fi": 1000,
      "acudi": 1001,
      "hos": 1002,
      "mira": 1003,
      "çar": 1004,
      "separa": 1005,
      "cousas": 1006,
      "mezes": 1007,
      "inas": 1008,
      "alo": 1009,
      "enas": 1010,
      "umes": 1011,
      "nova": 1012,
      "fir": 1013,
      "desse": 1014,
      "lig": 1015,
      "culo": 1016,
      "contar": 1017,
      "amiga": 1018,
      "sabia": 1019,
      "perguntou": 1020,
      "trazia": 1021,
      "imag": 1022,
      "!»": 1023,
      "agra": 1024,
      "cá": 1025,
      "cent": 1026,
      "fl": 1027,
      "gest": 1028,
      "nec": 1029,
      "pir": 1030,
      "tri": 1031,
      "vendo": 1032,
      "dado": 1033,
      "orre": 1034,
      "tonotar": 1035,
      "cama": 1036,
      "rima": 1037,
      "tica": 1038,
      "tive": 1039,
      "usão": 1040,
      "apenas": 1041,
      "moça": 1042,
      "ficou": 1043,
      "simo": 1044,
      "foram": 1045,
      "dizendo": 1046,
      "dura": 1047,
      "torn": 1048,
      "fug": 1049,
      "aff": 1050,
      "contrario": 1051,
      "janella": 1052,
      "possivel": 1053,
      "tonotario": 1054,
      "ada": 1055,
      "eme": 1056,
      "inte": 1057,
      "mou": 1058,
      "nças": 1059,
      "ur": 1060,
      "vem": 1061,
      "esco": 1062,
      "esar": 1063,
      "conte": 1064,
      "iamos": 1065,
      "retra": 1066,
      "istor": 1067,
      "taes": 1068,
      "saí": 1069,
      "saiu": 1070,
      "pode": 1071,
      "veis": 1072,
      "nossas": 1073,
      "verso": 1074,
      "cheg": 1075,
      "estas": 1076,
      "sup": 1077,
      "duz": 1078,
      "nego": 1079,
      "qualquer": 1080,
      "cavallos": 1081,
      "conversa": 1082,
      "Mam": 1083,
      "Mata": 1084,
      "Prima": 1085,
      "Sim": 1086,
      "ahi": 1087,
      "egu": 1088,
      "fé": 1089,
      "far": 1090,
      "hei": 1091,
      "of": 1092,
      "pio": 1093,
      "tis": 1094,
      "ãe": 1095,
      "dez": 1096,
      "esper": 1097,
      "escrip": 1098,
      "recor": 1099,
      "cando": 1100,
      "noti": 1101,
      "trabal": 1102,
      "lico": 1103,
      "tex": 1104,
      "uiz": 1105,
      "chei": 1106,
      "mostra": 1107,
      "gava": 1108,
      "prende": 1109,
      "Esta": 1110,
      "sig": 1111,
      "inteira": 1112,
      "Con": 1113,
      "sabe": 1114,
      "parecia": 1115,
      "riso": 1116,
      "reflex": 1117,
      "neces": 1118,
      "Matacavallos": 1119,
      "Por": 1120,
      "To": 1121,
      "bras": 1122,
      "cem": 1123,
      "cus": 1124,
      "histor": 1125,
      "ndes": 1126,
      "nume": 1127,
      "tris": 1128,
      "desa": 1129,
      "domin": 1130,
      "ropa": 1131,
      "ença": 1132,
      "imo": 1133,
      "andar": 1134,
      "lag": 1135,
      "latim": 1136,
      "....": 1137,
      "nome": 1138,
      "enter": 1139,
      "fiquei": 1140,
      "protonotario": 1141,
      "terra": 1142,
      "grandes": 1143,
      "pul": 1144,
      "fazia": 1145,
      "Europa": 1146,
      "força": 1147,
      "obri": 1148,
      "inhos": 1149,
      "curso": 1150,
      "principio": 1151,
      "nenhuma": 1152,
      "continuou": 1153,
      "provavel": 1154,
      "conclui": 1155,
      "egreja": 1156,
      "occas": 1157,
      "memoria": 1158,
      "Mamãe": 1159,
      "Qua": 1160,
      "ade": 1161,
      "eta": 1162,
      "je": 1163,
      "vespera": 1164,
      "vesti": 1165,
      "ntar": 1166,
      "arre": 1167,
      "vagar": 1168,
      "direi": 1169,
      "tima": 1170,
      "apos": 1171,
      "dose": 1172,
      "deste": 1173,
      "conse": 1174,
      "propria": 1175,
      "favor": 1176,
      "duca": 1177,
      "crea": 1178,
      "corri": 1179,
      "dellas": 1180,
      "minis": 1181,
      "ntava": 1182,
      "pareceu": 1183,
      "tenho": 1184,
      "pequeno": 1185,
      "opin": 1186,
      "respondeu": 1187,
      "claro": 1188,
      "Manduca": 1189,
      "familia": 1190,
      "CX": 1191,
      "apa": 1192,
      "brou": 1193,
      "brin": 1194,
      "fes": 1195,
      "lou": 1196,
      "tel": 1197,
      "rava": 1198,
      "dades": 1199,
      "dig": 1200,
      "poz": 1201,
      "cima": 1202,
      "licção": 1203,
      "pente": 1204,
      "pecca": 1205,
      "atten": 1206,
      "delles": 1207,
      "pude": 1208,
      "amigos": 1209,
      "sentido": 1210,
      "seguinte": 1211,
      "vase": 1212,
      "receb": 1213,
      "leitor": 1214,
      "rimas": 1215,
      "escrever": 1216,
      "corredor": 1217,
      "instantes": 1218,
      "quarto": 1219,
      "cabellos": 1220,
      "jantar": 1221,
      "Ho": 1222,
      "Vamos": 1223,
      "aquelle": 1224,
      "ben": 1225,
      "hy": 1226,
      "jei": 1227,
      "lingu": 1228,
      "ré": 1229,
      "tin": 1230,
      "zas": 1231,
      "òr": 1232,
      "dera": 1233,
      "doce": 1234,
      "medo": 1235,
      "daquella": 1236,
      "camin": 1237,
      "capaz": 1238,
      "guar": 1239,
      "vivia": 1240,
      "porém": 1241,
      "entrou": 1242,
      "descob": 1243,
      "amar": 1244,
      "perto": 1245,
      "iros": 1246,
      "tern": 1247,
      "silen": 1248,
      "accei": 1249,
      "sur": 1250,
      "vista": 1251,
      "seminaris": 1252,
      "ouvir": 1253,
      "acabar": 1254,
      "segundo": 1255,
      "sensa": 1256,
      "differ": 1257,
      "proprio": 1258,
      "effeito": 1259,
      "gestos": 1260,
      "lagrimas": 1261,
      "occasião": 1262,
      "Di": 1263,
      "En": 1264,
      "São": 1265,
      "Tio": 1266,
      "ame": 1267,
      "ama": 1268,
      "apo": 1269,
      "amanhã": 1270,
      "bu": 1271,
      "bos": 1272,
      "bel": 1273,
      "cina": 1274,
      "dro": 1275,
      "eter": 1276,
      "jar": 1277,
      "jec": 1278,
      "pia": 1279,
      "pint": 1280,
      "ses": 1281,
      "trou": 1282,
      "xu": 1283,
      "deci": 1284,
      "ntal": 1285,
      "alto": 1286,
      "aleg": 1287,
      "embar": 1288,
      "pag": 1289,
      "papae": 1290,
      "diga": 1291,
      "lava": 1292,
      "sonh": 1293,
      "tivo": 1294,
      "tivamente": 1295,
      "apprende": 1296,
      "moço": 1297,
      "ciencia": 1298,
      "despedi": 1299,
      "lidade": 1300,
      "nossos": 1301,
      "versos": 1302,
      "dissim": 1303,
      "discurso": 1304,
      "pernas": 1305,
      "curios": 1306,
      "quintal": 1307,
      "exemp": 1308,
      "contava": 1309,
      "sidade": 1310,
      "estou": 1311,
      "rosto": 1312,
      "disselhe": 1313,
      "Quem": 1314,
      "inten": 1315,
      "posso": 1316,
      "passo": 1317,
      "pudesse": 1318,
      "pensar": 1319,
      "morre": 1320,
      "alguem": 1321,
      "aborre": 1322,
      "marido": 1323,
      "ideias": 1324,
      "parece": 1325,
      "mett": 1326,
      "metti": 1327,
      "basta": 1328,
      "principal": 1329,
      "achava": 1330,
      "nenhum": 1331,
      "instante": 1332,
      "desejo": 1333,
      "imagina": 1334,
      "retrato": 1335,
      "historia": 1336,
      "triste": 1337,
      "opinião": 1338,
      "lingua": 1339,
      "IX": 1340,
      "Ora": 1341,
      "bor": 1342,
      "cala": 1343,
      "crer": 1344,
      "ete": 1345,
      "fran": 1346,
      "idos": 1347,
      "mus": 1348,
      "om": 1349,
      "sum": 1350,
      "vá": 1351,
      "vindo": 1352,
      "ys": 1353,
      "dente": 1354,
      "defun": 1355,
      "segre": 1356,
      "daqui": 1357,
      "daquelle": 1358,
      "ergu": 1359,
      "repli": 1360,
      "comme": 1361,
      "dir": 1362,
      "dido": 1363,
      "poder": 1364,
      "vido": 1365,
      "apesar": 1366,
      "ficio": 1367,
      "logar": 1368,
      "reso": 1369,
      "ressa": 1370,
      "tuna": 1371,
      "casas": 1372,
      "ambos": 1373,
      "chão": 1374,
      "prox": 1375,
      "iria": 1376,
      "bora": 1377,
      "sima": 1378,
      "braços": 1379,
      "velha": 1380,
      "mur": 1381,
      "muitos": 1382,
      "pensei": 1383,
      "Cont": 1384,
      "amiza": 1385,
      "dorm": 1386,
      "acabava": 1387,
      "achar": 1388,
      "achou": 1389,
      "jura": 1390,
      "fezse": 1391,
      "cumpri": 1392,
      "Talvez": 1393,
      "texto": 1394,
      "inteiramente": 1395,
      "domingo": 1396,
      "peccado": 1397,
      "silencio": 1398,
      "18": 1399,
      "Par": 1400,
      "Quiz": 1401,
      "Só": 1402,
      "adi": 1403,
      "agu": 1404,
      "bro": 1405,
      "cin": 1406,
      "lar": 1407,
      "ler": 1408,
      "llo": 1409,
      "nia": 1410,
      "ndi": 1411,
      "pira": 1412,
      "ttra": 1413,
      "quatro": 1414,
      "esc": 1415,
      "senão": 1416,
      "coch": 1417,
      "mei": 1418,
      "meta": 1419,
      "rela": 1420,
      "reio": 1421,
      "recu": 1422,
      "mando": 1423,
      "emo": 1424,
      "empre": 1425,
      "embora": 1426,
      "causa": 1427,
      "vara": 1428,
      "lhas": 1429,
      "imos": 1430,
      "impera": 1431,
      "iti": 1432,
      "lettra": 1433,
      "vinte": 1434,
      "tivesse": 1435,
      "entes": 1436,
      "trans": 1437,
      "logia": 1438,
      "respos": 1439,
      "pedia": 1440,
      "teve": 1441,
      "conhe": 1442,
      "culos": 1443,
      "tercei": 1444,
      "vela": 1445,
      "estão": 1446,
      "sul": 1447,
      "falou": 1448,
      "quelles": 1449,
      "aba": 1450,
      "visinha": 1451,
      "visitas": 1452,
      "talvez": 1453,
      "lembrou": 1454,
      "sentia": 1455,
      "egy": 1456,
      "segunda": 1457,
      "pés": 1458,
      "ultima": 1459,
      "passado": 1460,
      "feliz": 1461,
      "felicidade": 1462,
      "reflec": 1463,
      "peito": 1464,
      "VIII": 1465,
      "bonito": 1466,
      "theatro": 1467,
      "ultimo": 1468,
      "aposto": 1469,
      "El": 1470,
      "IV": 1471,
      "Pro": 1472,
      "VI": 1473,
      "atraz": 1474,
      "cles": 1475,
      "chora": 1476,
      "dra": 1477,
      "faria": 1478,
      "nella": 1479,
      "opera": 1480,
      "praz": 1481,
      "sin": 1482,
      "sta": 1483,
      "tr": 1484,
      "tá": 1485,
      "titulo": 1486,
      "ulo": 1487,
      "vera": 1488,
      "demo": 1489,
      "quero": 1490,
      "colle": 1491,
      "arte": 1492,
      "damente": 1493,
      "mana": 1494,
      "cança": 1495,
      "comm": 1496,
      "anda": 1497,
      "naes": 1498,
      "novamente": 1499,
      "rico": 1500,
      "entrei": 1501,
      "figu": 1502,
      "desta": 1503,
      "confi": 1504,
      "consul": 1505,
      "semos": 1506,
      "promp": 1507,
      "eccles": 1508,
      "rasse": 1509,
      "extra": 1510,
      "exac": 1511,
      "excla": 1512,
      "Este": 1513,
      "muitas": 1514,
      "Quer": 1515,
      "carro": 1516,
      "passou": 1517,
      "torio": 1518,
      "morrer": 1519,
      "valhe": 1520,
      "feição": 1521,
      "mil": 1522,
      "III": 1523,
      "Depois": 1524,
      "ficava": 1525,
      "sorriu": 1526,
      "virtu": 1527,
      "antiga": 1528,
      "especi": 1529,
      "bonita": 1530,
      "posição": 1531,
      "numero": 1532,
      "concluiu": 1533,
      "Quanto": 1534,
      "amizade": 1535,
      "imperador": 1536,
      "egyrico": 1537,
      "ecclesias": 1538,
      "Creio": 1539,
      "Des": 1540,
      "For": 1541,
      "Fui": 1542,
      "In": 1543,
      "Ti": 1544,
      "ban": 1545,
      "dá": 1546,
      "gel": 1547,
      "hes": 1548,
      "jos": 1549,
      "ndose": 1550,
      "vin": 1551,
      "defin": 1552,
      "deante": 1553,
      "quin": 1554,
      "esquer": 1555,
      "sendo": 1556,
      "erto": 1557,
      "rem": 1558,
      "realmente": 1559,
      "relig": 1560,
      "issimo": 1561,
      "mado": 1562,
      "materia": 1563,
      "cam": 1564,
      "cadas": 1565,
      "comnos": 1566,
      "ancia": 1567,
      "pol": 1568,
      "sone": 1569,
      "solu": 1570,
      "tir": 1571,
      "tivos": 1572,
      "perder": 1573,
      "Está": 1574,
      "olhar": 1575,
      "accres": 1576,
      "pelos": 1577,
      "carre": 1578,
      "falando": 1579,
      "gostava": 1580,
      "sabba": 1581,
      "costas": 1582,
      "Padre": 1583,
      "voltar": 1584,
      "deixei": 1585,
      "fezme": 1586,
      "quizesse": 1587,
      "perguntei": 1588,
      "Entre": 1589,
      "fecha": 1590,
      "parede": 1591,
      "praia": 1592,
      "diffi": 1593,
      "separação": 1594,
      "noticia": 1595,
      "necessidade": 1596,
      "caminho": 1597,
      "alegria": 1598,
      "sonhos": 1599,
      "defuncto": 1600,
      "ressaca": 1601,
      "comnosco": 1602,
      "00": 1603,
      "Dei": 1604,
      "Ia": 1605,
      "Ju": 1606,
      "Mo": 1607,
      "Oh": 1608,
      "Pan": 1609,
      "Su": 1610,
      "Vou": 1611,
      "bella": 1612,
      "cta": 1613,
      "cris": 1614,
      "cámos": 1615,
      "dinh": 1616,
      "ez": 1617,
      "hen": 1618,
      "mys": 1619,
      "on": 1620,
      "pré": 1621,
      "tent": 1622,
      "vé": 1623,
      "xa": 1624,
      "çou": 1625,
      "dedos": 1626,
      "dendo": 1627,
      "demora": 1628,
      "espi": 1629,
      "seis": 1630,
      "inve": 1631,
      "erio": 1632,
      "ouvia": 1633,
      "manda": 1634,
      "emquanto": 1635,
      "pan": 1636,
      "cair": 1637,
      "vame": 1638,
      "compara": 1639,
      "ench": 1640,
      "lhes": 1641,
      "impe": 1642,
      "andava": 1643,
      "andando": 1644,
      "naquella": 1645,
      "iterio": 1646,
      "rias": 1647,
      "lev": 1648,
      "vidas": 1649,
      "tira": 1650,
      "tiva": 1651,
      "hoje": 1652,
      "ciumes": 1653,
      "peda": 1654,
      "tur": 1655,
      "casse": 1656,
      "casar": 1657,
      "...»": 1658,
      "diabo": 1659,
      "preto": 1660,
      "estavam": 1661,
      "graph": 1662,
      "velo": 1663,
      "unica": 1664,
      "estre": 1665,
      "accen": 1666,
      "muro": 1667,
      "falta": 1668,
      "viagem": 1669,
      "passe": 1670,
      "torna": 1671,
      "certa": 1672,
      "pura": 1673,
      "vale": 1674,
      "primeiros": 1675,
      "pressão": 1676,
      "deixa": 1677,
      "obe": 1678,
      "podiam": 1679,
      "quizer": 1680,
      "lembrar": 1681,
      "lembrança": 1682,
      "perguntar": 1683,
      "cheia": 1684,
      "cheguei": 1685,
      "luz": 1686,
      "maneira": 1687,
      "suspei": 1688,
      "menor": 1689,
      "fizesse": 1690,
      "palli": 1691,
      "nuncia": 1692,
      "vinham": 1693,
      "pequena": 1694,
      "adminis": 1695,
      "creança": 1696,
      "flòr": 1697,
      "reflexão": 1698,
      "cemiterio": 1699,
      "enterro": 1700,
      "exemplo": 1701,
      "cinco": 1702,
      "prazer": 1703,
      "especie": 1704,
      "quinze": 1705,
      "Panegyrico": 1706,
      "véras": 1707,
      "administra": 1708,
      "Al": 1709,
      "Anda": 1710,
      "Elle": 1711,
      "Gur": 1712,
      "Me": 1713,
      "Nun": 1714,
      "Sr": 1715,
      "atra": 1716,
      "afinal": 1717,
      "ber": 1718,
      "bri": 1719,
      "bres": 1720,
      "cel": 1721,
      "fre": 1722,
      "fina": 1723,
      "gros": 1724,
      "hor": 1725,
      "ito": 1726,
      "nal": 1727,
      "nelle": 1728,
      "obra": 1729,
      "pto": 1730,
      "testa": 1731,
      "ula": 1732,
      "dem": 1733,
      "deira": 1734,
      "devagar": 1735,
      "devéras": 1736,
      "sege": 1737,
      "col": 1738,
      "ares": 1739,
      "incl": 1740,
      "infin": 1741,
      "alu": 1742,
      "recei": 1743,
      "ord": 1744,
      "tada": 1745,
      "path": 1746,
      "cabo": 1747,
      "enho": 1748,
      "umas": 1749,
      "importa": 1750,
      "anjo": 1751,
      "dito": 1752,
      "naquelle": 1753,
      "namora": 1754,
      "pobre": 1755,
      "sonho": 1756,
      "tique": 1757,
      "hon": 1758,
      "cida": 1759,
      "cimento": 1760,
      "peg": 1761,
      "convi": 1762,
      "conci": 1763,
      "uir": 1764,
      "çava": 1765,
      "peri": 1766,
      "proposi": 1767,
      "gada": 1768,
      "servi": 1769,
      "mesmos": 1770,
      "prehen": 1771,
      "taria": 1772,
      "contin": 1773,
      "contei": 1774,
      "Estava": 1775,
      "sigo": 1776,
      "bran": 1777,
      "cial": 1778,
      "cente": 1779,
      "velhas": 1780,
      "uni": 1781,
      "acos": 1782,
      "accor": 1783,
      "muda": 1784,
      "intim": 1785,
      "suc": 1786,
      "fazendo": 1787,
      "fazelo": 1788,
      "peral": 1789,
      "tasse": 1790,
      "chamava": 1791,
      "tinham": 1792,
      "visita": 1793,
      "poucos": 1794,
      "sentiu": 1795,
      "ouviu": 1796,
      "parecer": 1797,
      "Para": 1798,
      "Papae": 1799,
      "Paulo": 1800,
      "deixar": 1801,
      "juntos": 1802,
      "deume": 1803,
      "itual": 1804,
      "homens": 1805,
      "perguntoume": 1806,
      "estivesse": 1807,
      "confia": 1808,
      "culpa": 1809,
      "fizeram": 1810,
      "esquecer": 1811,
      "idades": 1812,
      "cavallo": 1813,
      "autor": 1814,
      "ill": 1815,
      "houve": 1816,
      "medicina": 1817,
      "confessar": 1818,
      "olhando": 1819,
      "Santa": 1820,
      "saudades": 1821,
      "pirou": 1822,
      "chegou": 1823,
      "egual": 1824,
      "provavelmente": 1825,
      "ternura": 1826,
      "seminarista": 1827,
      "morreu": 1828,
      "musica": 1829,
      "segredo": 1830,
      "tunata": 1831,
      "resposta": 1832,
      "Fortunata": 1833,
      "accrescent": 1834,
      "carreira": 1835,
      "Gurgel": 1836,
      "Nunca": 1837,
      "proposito": 1838,
      "?»": 1839,
      "Ainda": 1840,
      "Antes": 1841,
      "Che": 1842,
      "Ex": 1843,
      "Eram": 1844,
      "Jo": 1845,
      "LX": 1846,
      "_Panegyrico": 1847,
      "aconte": 1848,
      "bin": 1849,
      "côr": 1850,
      "mia": 1851,
      "neste": 1852,
      "ologia": 1853,
      "pôr": 1854,
      "sy": 1855,
      "sse": 1856,
      "tendo": 1857,
      "titu": 1858,
      "uso": 1859,
      "uras": 1860,
      "vê": 1861,
      "vim": 1862,
      "vemos": 1863,
      "rapa": 1864,
      "deram": 1865,
      "escon": 1866,
      "essas": 1867,
      "ntou": 1868,
      "arran": 1869,
      "inf": 1870,
      "dados": 1871,
      "isten": 1872,
      "issima": 1873,
      "ouro": 1874,
      "mag": 1875,
      "pat": 1876,
      "paes": 1877,
      "papa": 1878,
      "ela": 1879,
      "café": 1880,
      "commo": 1881,
      "comsigo": 1882,
      "roça": 1883,
      "eno": 1884,
      "engan": 1885,
      "san": 1886,
      "sacris": 1887,
      "eime": 1888,
      "eiras": 1889,
      "dio": 1890,
      "diria": 1891,
      "itou": 1892,
      "nomes": 1893,
      "poeta": 1894,
      "tirar": 1895,
      "cil": 1896,
      "despe": 1897,
      "confir": 1898,
      "char": 1899,
      "diss": 1900,
      "disso": 1901,
      "distin": 1902,
      "projec": 1903,
      "mesa": 1904,
      "conta": 1905,
      "cedeu": 1906,
      "olhou": 1907,
      "dizem": 1908,
      "pelas": 1909,
      "super": 1910,
      "cartas": 1911,
      "sós": 1912,
      "correr": 1913,
      "daria": 1914,
      "quellas": 1915,
      "pux": 1916,
      "gosta": 1917,
      "ntado": 1918,
      "visinho": 1919,
      "interesse": 1920,
      "esperar": 1921,
      "futu": 1922,
      "fundo": 1923,
      "quaes": 1924,
      "adoles": 1925,
      "explica": 1926,
      "menino": 1927,
      "respondi": 1928,
      "noites": 1929,
      "admira": 1930,
      "buscar": 1931,
      "levava": 1932,
      "gens": 1933,
      "houvesse": 1934,
      "ventura": 1935,
      "clara": 1936,
      "Realmente": 1937,
      "comple": 1938,
      "acudiu": 1939,
      "tornou": 1940,
      "poderia": 1941,
      "negocio": 1942,
      "recorda": 1943,
      "cheio": 1944,
      "obriga": 1945,
      "sensação": 1946,
      "troux": 1947,
      "intenção": 1948,
      "replicou": 1949,
      "lettras": 1950,
      "terceiro": 1951,
      "lembroume": 1952,
      "esquerda": 1953,
      "religios": 1954,
      "soneto": 1955,
      "Entretanto": 1956,
      "myster": 1957,
      "pathia": 1958,
      "istencia": 1959,
      "CXX": 1960,
      "CXXX": 1961,
      "Fla": 1962,
      "Le": 1963,
      "LXX": 1964,
      "LXXX": 1965,
      "Nos": 1966,
      "Póde": 1967,
      "Senh": 1968,
      "XC": 1969,
      "XL": 1970,
      "acaso": 1971,
      "bios": 1972,
      "bellas": 1973,
      "blico": 1974,
      "cera": 1975,
      "cendo": 1976,
      "fia": 1977,
      "har": 1978,
      "hia": 1979,
      "ilha": 1980,
      "jam": 1981,
      "lis": 1982,
      "lim": 1983,
      "mit": 1984,
      "prim": 1985,
      "plan": 1986,
      "sasse": 1987,
      "tros": 1988,
      "tumes": 1989,
      "xo": 1990,
      "»,": 1991,
      "rapaz": 1992,
      "deli": 1993,
      "dencia": 1994,
      "oso": 1995,
      "osas": 1996,
      "assum": 1997,
      "donde": 1998,
      "doente": 1999,
      "seme": 2000,
      "colh": 2001,
      "inqui": 2002,
      "erior": 2003,
      "alha": 2004,
      "repro": 2005,
      "reza": 2006,
      "tancia": 2007,
      "tom": 2008,
      "toada": 2009,
      "pad": 2010,
      "pade": 2011,
      "pape": 2012,
      "pagar": 2013,
      "elas": 2014,
      "camente": 2015,
      "canto": 2016,
      "vaidade": 2017,
      "ens": 2018,
      "encob": 2019,
      "enxu": 2020,
      "santa": 2021,
      "imitar": 2022,
      "div": 2023,
      "diver": 2024,
      "natu": 2025,
      "eume": 2026,
      "itei": 2027,
      "itua": 2028,
      "leis": 2029,
      "levou": 2030,
      "levar": 2031,
      "vieram": 2032,
      "cir": 2033,
      "conso": 2034,
      "conser": 2035,
      "perdo": 2036,
      "gabin": 2037,
      "irá": 2038,
      "bol": 2039,
      "atal": 2040,
      "ator": 2041,
      "exam": 2042,
      "grave": 2043,
      "Estou": 2044,
      "braço": 2045,
      "velhos": 2046,
      "acto": 2047,
      "corpo": 2048,
      "puz": 2049,
      "morto": 2050,
      "febre": 2051,
      "feio": 2052,
      "feita": 2053,
      "costumes": 2054,
      "deixou": 2055,
      "breve": 2056,
      "tenha": 2057,
      "toume": 2058,
      "pida": 2059,
      "metter": 2060,
      "chega": 2061,
      "culdade": 2062,
      "affir": 2063,
      "calor": 2064,
      "explicar": 2065,
      "Emfim": 2066,
      "mengo": 2067,
      "fizera": 2068,
      "moral": 2069,
      "doutor": 2070,
      "pensamento": 2071,
      "entrada": 2072,
      "lenço": 2073,
      "entender": 2074,
      "conhecia": 2075,
      "famili": 2076,
      "justi": 2077,
      "Fiquei": 2078,
      "officio": 2079,
      "trabalho": 2080,
      "mostrar": 2081,
      "signal": 2082,
      "desap": 2083,
      "creatura": 2084,
      "Parec": 2085,
      "visinhança": 2086,
      "apostolico": 2087,
      "Ella": 2088,
      "commum": 2089,
      "figura": 2090,
      "ecclesiastica": 2091,
      "polit": 2092,
      "dinheiro": 2093,
      "prég": 2094,
      "ordinar": 2095,
      "continua": 2096,
      "sacristão": 2097,
      "Flamengo": 2098,
      "Senhor": 2099,
      "assumpto": 2100,
      "papeis": 2101,
      "natureza": 2102,
      "gabinete": 2103,
      "Ah": 2104,
      "Aqui": 2105,
      "Bem": 2106,
      "Cas": 2107,
      "Cor": 2108,
      "Cat": 2109,
      "Disse": 2110,
      "Eis": 2111,
      "Is": 2112,
      "Pou": 2113,
      "Pen": 2114,
      "Rio": 2115,
      "Sent": 2116,
      "Tem": 2117,
      "az": 2118,
      "aram": 2119,
      "belle": 2120,
      "cções": 2121,
      "eis": 2122,
      "ecu": 2123,
      "hão": 2124,
      "lin": 2125,
      "má": 2126,
      "nisto": 2127,
      "pis": 2128,
      "pho": 2129,
      "pun": 2130,
      "pido": 2131,
      "sis": 2132,
      "situa": 2133,
      "tera": 2134,
      "tindo": 2135,
      "tino": 2136,
      "vão": 2137,
      "veu": 2138,
      "zan": 2139,
      "rado": 2140,
      "rase": 2141,
      "rato": 2142,
      "devo": 2143,
      "desen": 2144,
      "denuncia": 2145,
      "osa": 2146,
      "assus": 2147,
      "quere": 2148,
      "sejam": 2149,
      "ntando": 2150,
      "meia": 2151,
      "meias": 2152,
      "melan": 2153,
      "arias": 2154,
      "ini": 2155,
      "iame": 2156,
      "ero": 2157,
      "altar": 2158,
      "alvor": 2159,
      "reg": 2160,
      "remos": 2161,
      "refer": 2162,
      "remedi": 2163,
      "mação": 2164,
      "mande": 2165,
      "total": 2166,
      "compa": 2167,
      "enfi": 2168,
      "lhos": 2169,
      "sai": 2170,
      "satis": 2171,
      "dire": 2172,
      "euse": 2173,
      "novas": 2174,
      "poço": 2175,
      "rito": 2176,
      "viver": 2177,
      "tirou": 2178,
      "momento": 2179,
      "mocidade": 2180,
      "cidos": 2181,
      "ciente": 2182,
      "ficámos": 2183,
      "descer": 2184,
      "lido": 2185,
      "loja": 2186,
      "peguei": 2187,
      "pegou": 2188,
      "verti": 2189,
      "dasse": 2190,
      "chor": 2191,
      "disfar": 2192,
      "distancia": 2193,
      "perdão": 2194,
      "cura": 2195,
      "profes": 2196,
      "gato": 2197,
      "mesmas": 2198,
      "atre": 2199,
      "fora": 2200,
      "execu": 2201,
      "faço": 2202,
      "grava": 2203,
      "cedo": 2204,
      "unico": 2205,
      "esten": 2206,
      "anterior": 2207,
      "acho": 2208,
      "acção": 2209,
      "carta": 2210,
      "sómente": 2211,
      "ixão": 2212,
      "puro": 2213,
      "pena": 2214,
      "fazem": 2215,
      "chamar": 2216,
      "aber": 2217,
      "vamse": 2218,
      "feira": 2219,
      "sentir": 2220,
      "pareciam": 2221,
      "pergunta": 2222,
      "joel": 2223,
      "joven": 2224,
      "fossem": 2225,
      "pediu": 2226,
      "interior": 2227,
      "querer": 2228,
      "esperanças": 2229,
      "mentar": 2230,
      "mentir": 2231,
      "nidade": 2232,
      "nibus": 2233,
      "chegar": 2234,
      "Vol": 2235,
      "maneiras": 2236,
      "Demais": 2237,
      "primeiras": 2238,
      "Novo": 2239,
      "elog": 2240,
      "começou": 2241,
      "bilhe": 2242,
      "Ouvi": 2243,
      "cuidados": 2244,
      "voltandose": 2245,
      "antigo": 2246,
      "fectivamente": 2247,
      "genho": 2248,
      "janellas": 2249,
      "justamente": 2250,
      "ordena": 2251,
      "companhia": 2252,
      "estudos": 2253,
      "ultimos": 2254,
      "saude": 2255,
      "viuva": 2256,
      "agrade": 2257,
      "tornei": 2258,
      "affli": 2259,
      "emenda": 2260,
      "saía": 2261,
      "noticias": 2262,
      "vestido": 2263,
      "CXL": 2264,
      "penteado": 2265,
      "attenção": 2266,
      "Home": 2267,
      "differença": 2268,
      "Engenho": 2269,
      "amea": 2270,
      "eterna": 2271,
      "dissimula": 2272,
      "omnibus": 2273,
      "dormir": 2274,
      "adivinha": 2275,
      "escra": 2276,
      "relações": 2277,
      "emoção": 2278,
      "collegio": 2279,
      "sabbado": 2280,
      "difficuldade": 2281,
      "espirito": 2282,
      "receio": 2283,
      "João": 2284,
      "rapazes": 2285,
      "infancia": 2286,
      "sangue": 2287,
      "dissesse": 2288,
      "superla": 2289,
      "futuro": 2290,
      "semelha": 2291,
      "bolso": 2292,
      "situação": 2293,
      "querendo": 2294,
      "melanco": 2295,
      "alvoro": 2296,
      "),": 2297,
      "**": 2298,
      "Olha": 2299,
      "Pos": 2300,
      "Passe": 2301,
      "Sab": 2302,
      "Tenho": 2303,
      "Va": 2304,
      "Ve": 2305,
      "Vá": 2306,
      "acompanh": 2307,
      "bis": 2308,
      "cria": 2309,
      "cru": 2310,
      "eza": 2311,
      "fra": 2312,
      "gam": 2313,
      "gando": 2314,
      "gala": 2315,
      "huma": 2316,
      "ig": 2317,
      "ime": 2318,
      "jas": 2319,
      "llas": 2320,
      "ncias": 2321,
      "oma": 2322,
      "pla": 2323,
      "pros": 2324,
      "rus": 2325,
      "tho": 2326,
      "tala": 2327,
      "tru": 2328,
      "támos": 2329,
      "tenta": 2330,
      "deve": 2331,
      "dezes": 2332,
      "dentes": 2333,
      "defes": 2334,
      "asso": 2335,
      "ese": 2336,
      "esca": 2337,
      "essem": 2338,
      "esfor": 2339,
      "espir": 2340,
      "esses": 2341,
      "doença": 2342,
      "semana": 2343,
      "ntei": 2344,
      "ntan": 2345,
      "cova": 2346,
      "iago": 2347,
      "erro": 2348,
      "allo": 2349,
      "alhe": 2350,
      "alcan": 2351,
      "além": 2352,
      "altera": 2353,
      "rez": 2354,
      "retor": 2355,
      "recus": 2356,
      "rejei": 2357,
      "recolh": 2358,
      "ismos": 2359,
      "ouve": 2360,
      "tora": 2361,
      "tocha": 2362,
      "tomar": 2363,
      "tocava": 2364,
      "tograph": 2365,
      "patos": 2366,
      "paciencia": 2367,
      "ello": 2368,
      "havendo": 2369,
      "cana": 2370,
      "caras": 2371,
      "enfia": 2372,
      "saida": 2373,
      "santos": 2374,
      "sapatos": 2375,
      "eiros": 2376,
      "imper": 2377,
      "impul": 2378,
      "dida": 2379,
      "labios": 2380,
      "novo": 2381,
      "ponho": 2382,
      "parar": 2383,
      "vio": 2384,
      "após": 2385,
      "movi": 2386,
      "dessas": 2387,
      "libras": 2388,
      "peor": 2389,
      "peço": 2390,
      "teza": 2391,
      "concor": 2392,
      "consentiu": 2393,
      "vex": 2394,
      "vozes": 2395,
      "case": 2396,
      "chu": 2397,
      "chica": 2398,
      "promet": 2399,
      "seriam": 2400,
      "servir": 2401,
      "eceu": 2402,
      "parou": 2403,
      "bon": 2404,
      "prefer": 2405,
      "tardes": 2406,
      "Esco": 2407,
      "outr": 2408,
      "fale": 2409,
      "falei": 2410,
      "viam": 2411,
      "possu": 2412,
      "pur": 2413,
      "penna": 2414,
      "chacara": 2415,
      "abri": 2416,
      "feitos": 2417,
      "miu": 2418,
      "ouvira": 2419,
      "ouvidos": 2420,
      "baix": 2421,
      "voltou": 2422,
      "perguntava": 2423,
      "pediume": 2424,
      "obser": 2425,
      "tenor": 2426,
      "esperando": 2427,
      "esperança": 2428,
      "finalmente": 2429,
      "falarlhe": 2430,
      "insis": 2431,
      "affec": 2432,
      "manha": 2433,
      "explicou": 2434,
      "passava": 2435,
      "suspirou": 2436,
      "turalmente": 2437,
      "phrase": 2438,
      "precisa": 2439,
      "recebi": 2440,
      "longa": 2441,
      "queriam": 2442,
      "curta": 2443,
      "Naturalmente": 2444,
      "cencia": 2445,
      "pensando": 2446,
      "antigas": 2447,
      "mulheres": 2448,
      "medico": 2449,
      "mpeu": 2450,
      "conhecer": 2451,
      "beijo": 2452,
      "usava": 2453,
      "creanças": 2454,
      "Pedro": 2455,
      "batalha": 2456,
      "olhava": 2457,
      "theologia": 2458,
      "Santiago": 2459,
      "interrom": 2460,
      "Fiz": 2461,
      "agradeci": 2462,
      "escripto": 2463,
      "Porque": 2464,
      "arrepen": 2465,
      "direita": 2466,
      "louvor": 2467,
      "sensações": 2468,
      "paginas": 2469,
      "imaginação": 2470,
      "calado": 2471,
      "commer": 2472,
      "resol": 2473,
      "murro": 2474,
      "juramento": 2475,
      "cumprir": 2476,
      "varanda": 2477,
      "prompto": 2478,
      "extraordinar": 2479,
      "virtudes": 2480,
      "Tive": 2481,
      "Deix": 2482,
      "obede": 2483,
      "inclina": 2484,
      "concilia": 2485,
      "acostu": 2486,
      "peralta": 2487,
      "illusão": 2488,
      "Cheguei": 2489,
      "plano": 2490,
      "justiça": 2491,
      "Parece": 2492,
      "prégão": 2493,
      "photograph": 2494,
      "professor": 2495,
      "canapé": 2496,
      "chicara": 2497,
      "Bas": 2498,
      "Cha": 2499,
      "Cesar": 2500,
      "Fez": 2501,
      "Gra": 2502,
      "Meu": 2503,
      "Ta": 2504,
      "agar": 2505,
      "avis": 2506,
      "aju": 2507,
      "apanh": 2508,
      "acompa": 2509,
      "có": 2510,
      "celle": 2511,
      "cella": 2512,
      "ceram": 2513,
      "eco": 2514,
      "evo": 2515,
      "fen": 2516,
      "fres": 2517,
      "gera": 2518,
      "iro": 2519,
      "ilhas": 2520,
      "jou": 2521,
      "jor": 2522,
      "nu": 2523,
      "ndia": 2524,
      "nesse": 2525,
      "pô": 2526,
      "pisto": 2527,
      "rum": 2528,
      "sões": 2529,
      "té": 2530,
      "tit": 2531,
      "veram": 2532,
      "çam": 2533,
      "debaixo": 2534,
      "quê": 2535,
      "quant": 2536,
      "espo": 2537,
      "queri": 2538,
      "quemos": 2539,
      "dono": 2540,
      "dobra": 2541,
      "sere": 2542,
      "secre": 2543,
      "serio": 2544,
      "sepul": 2545,
      "inci": 2546,
      "dal": 2547,
      "dalo": 2548,
      "erra": 2549,
      "alta": 2550,
      "almo": 2551,
      "algar": 2552,
      "alidade": 2553,
      "alegre": 2554,
      "almoço": 2555,
      "relo": 2556,
      "revel": 2557,
      "repu": 2558,
      "toma": 2559,
      "paga": 2560,
      "hab": 2561,
      "caí": 2562,
      "cadeira": 2563,
      "compri": 2564,
      "envol": 2565,
      "enfer": 2566,
      "saia": 2567,
      "impressão": 2568,
      "anim": 2569,
      "eramos": 2570,
      "dios": 2571,
      "dime": 2572,
      "divida": 2573,
      "namor": 2574,
      "lados": 2575,
      "lação": 2576,
      "nora": 2577,
      "nota": 2578,
      "nomia": 2579,
      "pontas": 2580,
      "leve": 2581,
      "viesse": 2582,
      "soce": 2583,
      "til": 2584,
      "tiu": 2585,
      "ticas": 2586,
      "approva": 2587,
      "moe": 2588,
      "modes": 2589,
      "fita": 2590,
      "tran": 2591,
      "tranças": 2592,
      "desva": 2593,
      "destina": 2594,
      "despedir": 2595,
      "destino": 2596,
      "loteria": 2597,
      "resta": 2598,
      "pede": 2599,
      "pegar": 2600,
      "tua": 2601,
      "chá": 2602,
      "disto": 2603,
      "distra": 2604,
      "çado": 2605,
      "çada": 2606,
      "...?": 2607,
      "terna": 2608,
      "mestre": 2609,
      "boas": 2610,
      "bons": 2611,
      "contou": 2612,
      "estado": 2613,
      "faça": 2614,
      "facil": 2615,
      "Escrip": 2616,
      "estia": 2617,
      "olhei": 2618,
      "inava": 2619,
      "dizelo": 2620,
      "mula": 2621,
      "caro": 2622,
      "possa": 2623,
      "corria": 2624,
      "certamente": 2625,
      "penso": 2626,
      "Conh": 2627,
      "faziam": 2628,
      "ntada": 2629,
      "sabes": 2630,
      "valia": 2631,
      "validos": 2632,
      "aban": 2633,
      "feições": 2634,
      "visto": 2635,
      "talo": 2636,
      "idez": 2637,
      "ouvido": 2638,
      "ouvilo": 2639,
      "bai": 2640,
      "bara": 2641,
      "clus": 2642,
      "obli": 2643,
      "objec": 2644,
      "esperava": 2645,
      "verdadeira": 2646,
      "pódem": 2647,
      "mentira": 2648,
      "lembrame": 2649,
      "ruas": 2650,
      "lução": 2651,
      "mandar": 2652,
      "susto": 2653,
      "menina": 2654,
      "trem": 2655,
      "manhãs": 2656,
      "vencer": 2657,
      "esqueça": 2658,
      "pequenos": 2659,
      "comecei": 2660,
      "nhado": 2661,
      "qualidades": 2662,
      "Outra": 2663,
      "Outros": 2664,
      "cuido": 2665,
      "somma": 2666,
      "sombra": 2667,
      "responder": 2668,
      "paredes": 2669,
      "sentimento": 2670,
      "cumsta": 2671,
      "lance": 2672,
      "cioso": 2673,
      "claros": 2674,
      "conclu": 2675,
      "conclusão": 2676,
      "especta": 2677,
      "vento": 2678,
      "espaço": 2679,
      "promessas": 2680,
      "confesso": 2681,
      "apertar": 2682,
      "narração": 2683,
      "maiores": 2684,
      "Pedi": 2685,
      "estudar": 2686,
      "consciencia": 2687,
      "interroga": 2688,
      "trib": 2689,
      "durante": 2690,
      "fugir": 2691,
      "afflig": 2692,
      "escolh": 2693,
      "suppli": 2694,
      "trabalha": 2695,
      "signaes": 2696,
      "reflexões": 2697,
      "necessar": 2698,
      "numeros": 2699,
      "adeante": 2700,
      "conselho": 2701,
      "propriamente": 2702,
      "brincando": 2703,
      "receber": 2704,
      "Hoje": 2705,
      "benção": 2706,
      "seminaristas": 2707,
      "embargos": 2708,
      "apprender": 2709,
      "francamente": 2710,
      "ergueuse": 2711,
      "commenda": 2712,
      "poderá": 2713,
      "resolução": 2714,
      "murmu": 2715,
      "185": 2716,
      "largo": 2717,
      "metade": 2718,
      "conhecido": 2719,
      "Invalidos": 2720,
      "defini": 2721,
      "levasse": 2722,
      "pedaço": 2723,
      "suspeita": 2724,
      "infinito": 2725,
      "univer": 2726,
      "intimidade": 2727,
      "accrescentou": 2728,
      "sym": 2729,
      "reproduz": 2730,
      "circumsta": 2731,
      "politica": 2732,
      "belleza": 2733,
      "remedio": 2734,
      "alvoroço": 2735,
      "bispo": 2736,
      "defesa": 2737,
      "Escola": 2738,
      "algarismos": 2739,
      "Escriptura": 2740,
      "Ac": 2741,
      "Afinal": 2742,
      "Cam": 2743,
      "Cui": 2744,
      "Du": 2745,
      "Dom": 2746,
      "Jan": 2747,
      "Lo": 2748,
      "Morre": 2749,
      "Neste": 2750,
      "Roma": 2751,
      "Sa": 2752,
      "Ser": 2753,
      "Sou": 2754,
      "Sua": 2755,
      "Sata": 2756,
      "Ver": 2757,
      "Ven": 2758,
      "abo": 2759,
      "avam": 2760,
      "amava": 2761,
      "avent": 2762,
      "ajus": 2763,
      "avem": 2764,
      "dê": 2765,
      "dinhos": 2766,
      "et": 2767,
      "evi": 2768,
      "fis": 2769,
      "flor": 2770,
      "gal": 2771,
      "gor": 2772,
      "iz": 2773,
      "iar": 2774,
      "ilo": 2775,
      "ilos": 2776,
      "linha": 2777,
      "lendo": 2778,
      "nisso": 2779,
      "põ": 2780,
      "ror": 2781,
      "soume": 2782,
      "vul": 2783,
      "varia": 2784,
      "ysi": 2785,
      "zem": 2786,
      "ário": 2787,
      "çando": 2788,
      "rada": 2789,
      "rando": 2790,
      "rahy": 2791,
      "dedi": 2792,
      "dever": 2793,
      "demais": 2794,
      "deitar": 2795,
      "devem": 2796,
      "ase": 2797,
      "aspe": 2798,
      "questão": 2799,
      "quator": 2800,
      "espel": 2801,
      "espos": 2802,
      "escada": 2803,
      "quencia": 2804,
      "sema": 2805,
      "seculos": 2806,
      "ntem": 2807,
      "ntissima": 2808,
      "conto": 2809,
      "mez": 2810,
      "media": 2811,
      "infer": 2812,
      "dada": 2813,
      "davam": 2814,
      "daquelles": 2815,
      "daquellas": 2816,
      "iamente": 2817,
      "ali": 2818,
      "alos": 2819,
      "alia": 2820,
      "allia": 2821,
      "alhei": 2822,
      "repara": 2823,
      "remo": 2824,
      "regra": 2825,
      "matar": 2826,
      "emb": 2827,
      "tocar": 2828,
      "pau": 2829,
      "pado": 2830,
      "paixão": 2831,
      "elhe": 2832,
      "cau": 2833,
      "cantos": 2834,
      "vaga": 2835,
      "compoz": 2836,
      "comprehen": 2837,
      "encont": 2838,
      "saindo": 2839,
      "sacudi": 2840,
      "imita": 2841,
      "impossivel": 2842,
      "ande": 2843,
      "anima": 2844,
      "eração": 2845,
      "--«": 2846,
      "divi": 2847,
      "dição": 2848,
      "naz": 2849,
      "nove": 2850,
      "lenta": 2851,
      "vivo": 2852,
      "tias": 2853,
      "tido": 2854,
      "tico": 2855,
      "tiver": 2856,
      "tiveram": 2857,
      "masse": 2858,
      "poria": 2859,
      "mode": 2860,
      "moda": 2861,
      "morar": 2862,
      "moças": 2863,
      "motivo": 2864,
      "motivos": 2865,
      "entro": 2866,
      "desas": 2867,
      "desvi": 2868,
      "descan": 2869,
      "desconfia": 2870,
      "licen": 2871,
      "log": 2872,
      "pedra": 2873,
      "turas": 2874,
      "vogado": 2875,
      "verme": 2876,
      "casos": 2877,
      "ambas": 2878,
      "ndome": 2879,
      "chos": 2880,
      "chou": 2881,
      "chinha": 2882,
      "perde": 2883,
      "perdeu": 2884,
      "cunha": 2885,
      "andome": 2886,
      "andorin": 2887,
      "profer": 2888,
      "propoz": 2889,
      "mostrou": 2890,
      "será": 2891,
      "serás": 2892,
      "parei": 2893,
      "partes": 2894,
      "parentes": 2895,
      "prepara": 2896,
      "exter": 2897,
      "exclus": 2898,
      "graças": 2899,
      "sinto": 2900,
      "ceder": 2901,
      "estes": 2902,
      "diziam": 2903,
      "casada": 2904,
      "casamento": 2905,
      "subi": 2906,
      "duvi": 2907,
      "essencia": 2908,
      "passei": 2909,
      "passos": 2910,
      "ramme": 2911,
      "cerimo": 2912,
      "Cons": 2913,
      "sabor": 2914,
      "sabendo": 2915,
      "valem": 2916,
      "valor": 2917,
      "chama": 2918,
      "abriu": 2919,
      "abrir": 2920,
      "absolu": 2921,
      "tinhamos": 2922,
      "visse": 2923,
      "presta": 2924,
      "pouca": 2925,
      "iamse": 2926,
      "padrenossos": 2927,
      "parecendo": 2928,
      "voltei": 2929,
      "deixe": 2930,
      "deixasse": 2931,
      "deixava": 2932,
      "deixouse": 2933,
      "acabei": 2934,
      "reime": 2935,
      "aquillo": 2936,
      "juro": 2937,
      "interessa": 2938,
      "fortal": 2939,
      "obse": 2940,
      "obsta": 2941,
      "finas": 2942,
      "quizera": 2943,
      "estima": 2944,
      "estivera": 2945,
      "sencia": 2946,
      "nica": 2947,
      "confessa": 2948,
      "Podia": 2949,
      "Justamente": 2950,
      "Segu": 2951,
      "trazer": 2952,
      "calças": 2953,
      "passagem": 2954,
      "suspen": 2955,
      "suspira": 2956,
      "trecho": 2957,
      "palha": 2958,
      "ficaram": 2959,
      "crise": 2960,
      "imagem": 2961,
      "missas": 2962,
      "physi": 2963,
      "soub": 2964,
      "repetia": 2965,
      "falado": 2966,
      "falavam": 2967,
      "troca": 2968,
      "esqueceu": 2969,
      "recebe": 2970,
      "leitora": 2971,
      "bastava": 2972,
      "advogado": 2973,
      "busto": 2974,
      "buscava": 2975,
      "opus": 2976,
      "Sanchinha": 2977,
      "cuidar": 2978,
      "escrevendo": 2979,
      "Nada": 2980,
      "autos": 2981,
      "ausencia": 2982,
      "pensava": 2983,
      "oito": 2984,
      "correu": 2985,
      "parecido": 2986,
      "felizes": 2987,
      "quarenta": 2988,
      "especial": 2989,
      "diziame": 2990,
      "espantado": 2991,
      "confessou": 2992,
      "beijar": 2993,
      "proprios": 2994,
      "proprias": 2995,
      "repetição": 2996,
      "salva": 2997,
      "salvo": 2998,
      "effectivamente": 2999,
      "escura": 3000,
      "ordem": 3001,
      "Peguei": 3002,
      "Pergu": 3003,
      "gueis": 3004,
      "particularmente": 3005,
      "perguntoulhe": 3006,
      "imagin": 3007,
      "afflicção": 3008,
      "conversação": 3009,
      "férias": 3010,
      "offer": 3011,
      "espero": 3012,
      "textos": 3013,
      "direito": 3014,
      "tela": 3015,
      "bene": 3016,
      "hypo": 3017,
      "Diga": 3018,
      "piano": 3019,
      "despedida": 3020,
      "dissimul": 3021,
      "principalmente": 3022,
      "bordo": 3023,
      "proxima": 3024,
      "Contei": 3025,
      "agua": 3026,
      "cocheiro": 3027,
      "metap": 3028,
      "chorando": 3029,
      "definiti": 3030,
      "Juro": 3031,
      "Monica": 3032,
      "Sup": 3033,
      "inveja": 3034,
      "invejas": 3035,
      "accender": 3036,
      "pallio": 3037,
      "administrador": 3038,
      "Andarahy": 3039,
      "cele": 3040,
      "alugueis": 3041,
      "tiquetique": 3042,
      "Expli": 3043,
      "distincção": 3044,
      "projecto": 3045,
      "admiração": 3046,
      "obrigação": 3047,
      "mysterios": 3048,
      "padres": 3049,
      "enxugou": 3050,
      "atalhou": 3051,
      "continuava": 3052,
      "Casmurro": 3053,
      "Isto": 3054,
      "enfiei": 3055,
      "bilhete": 3056,
      "espiritual": 3057,
      "photographia": 3058,
      "Grande": 3059,
      "jornaes": 3060,
      "titui": 3061,
      "sepultura": 3062,
      "dalli": 3063,
      "relogio": 3064,
      "namoro": 3065,
      "definição": 3066,
      "Janeiro": 3067,
      "Morreu": 3068,
      "Satanaz": 3069,
      "avemarias": 3070,
      "aspecto": 3071,
      "quatorze": 3072,
      "esposa": 3073,
      "semanas": 3074,
      "licença": 3075,
      "andorinhas": 3076,
      "70": 3077,
      "Até": 3078,
      "Da": 3079,
      "Do": 3080,
      "Desta": 3081,
      "Lem": 3082,
      "Ma": 3083,
      "Olhe": 3084,
      "Oth": 3085,
      "Pu": 3086,
      "Sem": 3087,
      "Sempre": 3088,
      "Traz": 3089,
      "aco": 3090,
      "aca": 3091,
      "adas": 3092,
      "amente": 3093,
      "acu": 3094,
      "afim": 3095,
      "aquelles": 3096,
      "bli": 3097,
      "besta": 3098,
      "cr": 3099,
      "ctos": 3100,
      "cinho": 3101,
      "cára": 3102,
      "dé": 3103,
      "dim": 3104,
      "dinha": 3105,
      "dros": 3106,
      "dindo": 3107,
      "dôr": 3108,
      "ego": 3109,
      "ebro": 3110,
      "fò": 3111,
      "festa": 3112,
      "frio": 3113,
      "fôr": 3114,
      "festas": 3115,
      "gasse": 3116,
      "gloria": 3117,
      "hme": 3118,
      "ib": 3119,
      "iou": 3120,
      "ila": 3121,
      "icia": 3122,
      "juiz": 3123,
      "lê": 3124,
      "lua": 3125,
      "mbe": 3126,
      "nesta": 3127,
      "neg": 3128,
      "nessa": 3129,
      "oh": 3130,
      "ole": 3131,
      "pó": 3132,
      "pção": 3133,
      "phe": 3134,
      "sé": 3135,
      "scis": 3136,
      "tum": 3137,
      "teu": 3138,
      "tisse": 3139,
      "use": 3140,
      "uar": 3141,
      "zo": 3142,
      "raro": 3143,
      "ravel": 3144,
      "osos": 3145,
      "astro": 3146,
      "assis": 3147,
      "quia": 3148,
      "quis": 3149,
      "quio": 3150,
      "estra": 3151,
      "queira": 3152,
      "dom": 3153,
      "dores": 3154,
      "doces": 3155,
      "sete": 3156,
      "sequer": 3157,
      "cocadas": 3158,
      "mex": 3159,
      "mere": 3160,
      "merece": 3161,
      "arse": 3162,
      "arma": 3163,
      "arit": 3164,
      "inhas": 3165,
      "ingen": 3166,
      "invent": 3167,
      "ial": 3168,
      "alcova": 3169,
      "remor": 3170,
      "refor": 3171,
      "reparti": 3172,
      "reminis": 3173,
      "recommenda": 3174,
      "issa": 3175,
      "ismo": 3176,
      "ouvindo": 3177,
      "mant": 3178,
      "embaixo": 3179,
      "empur": 3180,
      "tação": 3181,
      "tadas": 3182,
      "taman": 3183,
      "cantando": 3184,
      "catho": 3185,
      "vanta": 3186,
      "comprime": 3187,
      "composto": 3188,
      "rom": 3189,
      "encar": 3190,
      "ensin": 3191,
      "umo": 3192,
      "sae": 3193,
      "sava": 3194,
      "saisse": 3195,
      "eito": 3196,
      "imprim": 3197,
      "animo": 3198,
      "anjos": 3199,
      "eras": 3200,
      "didas": 3201,
      "dimento": 3202,
      "diencia": 3203,
      "natura": 3204,
      "lam": 3205,
      "itor": 3206,
      "italia": 3207,
      "poe": 3208,
      "polem": 3209,
      "ponha": 3210,
      "guerra": 3211,
      "vic": 3212,
      "viva": 3213,
      "viria": 3214,
      "vigar": 3215,
      "tirasse": 3216,
      "hontem": 3217,
      "apal": 3218,
      "apro": 3219,
      "apez": 3220,
      "portas": 3221,
      "mol": 3222,
      "modos": 3223,
      "ento": 3224,
      "civel": 3225,
      "cimentos": 3226,
      "cilidade": 3227,
      "ficios": 3228,
      "descia": 3229,
      "destas": 3230,
      "destes": 3231,
      "desconfi": 3232,
      "desespero": 3233,
      "ligas": 3234,
      "licções": 3235,
      "respira": 3236,
      "peça": 3237,
      "teme": 3238,
      "teis": 3239,
      "tete": 3240,
      "consi": 3241,
      "consegu": 3242,
      "concei": 3243,
      "confu": 3244,
      "vergo": 3245,
      "dase": 3246,
      "permit": 3247,
      "ecer": 3248,
      "iase": 3249,
      "termo": 3250,
      "termos": 3251,
      "terias": 3252,
      "boca": 3253,
      "attent": 3254,
      "pretexto": 3255,
      "folhe": 3256,
      "folhas": 3257,
      "expressão": 3258,
      "experi": 3259,
      "existencia": 3260,
      "exquis": 3261,
      "contas": 3262,
      "contando": 3263,
      "contemp": 3264,
      "fada": 3265,
      "face": 3266,
      "fantas": 3267,
      "grav": 3268,
      "sido": 3269,
      "sivo": 3270,
      "tempos": 3271,
      "tempera": 3272,
      "ciaes": 3273,
      "ciante": 3274,
      "ceza": 3275,
      "unhas": 3276,
      "actos": 3277,
      "dissera": 3278,
      "intima": 3279,
      "sujei": 3280,
      "caridade": 3281,
      "duvida": 3282,
      "duvidas": 3283,
      "corte": 3284,
      "corresponde": 3285,
      "ramse": 3286,
      "certeza": 3287,
      "cerebro": 3288,
      "pulo": 3289,
      "publico": 3290,
      "publi": 3291,
      "pensasse": 3292,
      "morta": 3293,
      "morres": 3294,
      "mortos": 3295,
      "indagar": 3296,
      "Contava": 3297,
      "amigas": 3298,
      "gostou": 3299,
      "valer": 3300,
      "abria": 3301,
      "absol": 3302,
      "vamme": 3303,
      "febres": 3304,
      "fechar": 3305,
      "feitamente": 3306,
      "presas": 3307,
      "presença": 3308,
      "nascido": 3309,
      "roupa": 3310,
      "plica": 3311,
      "pareceme": 3312,
      "bater": 3313,
      "voltas": 3314,
      "dizerme": 3315,
      "dizerlhe": 3316,
      "joias": 3317,
      "malu": 3318,
      "acabasse": 3319,
      "achasse": 3320,
      "juntas": 3321,
      "forte": 3322,
      "forças": 3323,
      "ferida": 3324,
      "tavamos": 3325,
      "homeo": 3326,
      "negar": 3327,
      "fur": 3328,
      "perguntas": 3329,
      "pito": 3330,
      "mettia": 3331,
      "falarme": 3332,
      "falaria": 3333,
      "confusão": 3334,
      "ruim": 3335,
      "queilhe": 3336,
      "affeição": 3337,
      "calo": 3338,
      "explicação": 3339,
      "explicado": 3340,
      "passando": 3341,
      "passavam": 3342,
      "sussur": 3343,
      "gase": 3344,
      "contracto": 3345,
      "philos": 3346,
      "soube": 3347,
      "repente": 3348,
      "precisava": 3349,
      "venha": 3350,
      "venção": 3351,
      "sorte": 3352,
      "sorrindo": 3353,
      "trocar": 3354,
      "trombe": 3355,
      "esquece": 3356,
      "recente": 3357,
      "moraes": 3358,
      "comer": 3359,
      "doutr": 3360,
      "bilidade": 3361,
      "fór": 3362,
      "estaria": 3363,
      "cadaver": 3364,
      "Naquelle": 3365,
      "audiencia": 3366,
      "cencias": 3367,
      "voltando": 3368,
      "abraç": 3369,
      "antigos": 3370,
      "Havia": 3371,
      "orações": 3372,
      "continuei": 3373,
      "ilar": 3374,
      "candida": 3375,
      "cancella": 3376,
      "minuto": 3377,
      "cumpria": 3378,
      "varlhe": 3379,
      "haveria": 3380,
      "gana": 3381,
      "beiços": 3382,
      "crescer": 3383,
      "repetiu": 3384,
      "these": 3385,
      "nariz": 3386,
      "vessem": 3387,
      "estuda": 3388,
      "amores": 3389,
      "passaros": 3390,
      "memorias": 3391,
      "subs": 3392,
      "subir": 3393,
      "interrompeu": 3394,
      "acudiram": 3395,
      "mirando": 3396,
      "flôr": 3397,
      "tribu": 3398,
      "escola": 3399,
      "escolher": 3400,
      "podendo": 3401,
      "negocios": 3402,
      "egualmente": 3403,
      "esperei": 3404,
      "recordar": 3405,
      "trabalhar": 3406,
      "Toda": 3407,
      "Todas": 3408,
      "custa": 3409,
      "adeus": 3410,
      "adequa": 3411,
      "creaturas": 3412,
      "corrig": 3413,
      "guardar": 3414,
      "descobrir": 3415,
      "surda": 3416,
      "differente": 3417,
      "Enxu": 3418,
      "pintura": 3419,
      "apprendeu": 3420,
      "curiosidades": 3421,
      "aborrecido": 3422,
      "metteu": 3423,
      "mettido": 3424,
      "bastante": 3425,
      "tristeza": 3426,
      "proximo": 3427,
      "Parei": 3428,
      "terceira": 3429,
      "drama": 3430,
      "exacto": 3431,
      "exclamou": 3432,
      "exclamação": 3433,
      "Quero": 3434,
      "virtude": 3435,
      "sabbados": 3436,
      "000": 3437,
      "comparação": 3438,
      "impede": 3439,
      "impeto": 3440,
      "administração": 3441,
      "convicção": 3442,
      "mudança": 3443,
      "despezas": 3444,
      "projectos": 3445,
      "sósinho": 3446,
      "adolescencia": 3447,
      "recordações": 3448,
      "trouxe": 3449,
      "religioso": 3450,
      "mysterio": 3451,
      "delicios": 3452,
      "inquie": 3453,
      "divina": 3454,
      "divino": 3455,
      "consola": 3456,
      "conserva": 3457,
      "desappareceu": 3458,
      "Cattete": 3459,
      "Pouco": 3460,
      "referi": 3461,
      "sairam": 3462,
      "vertigem": 3463,
      "abertos": 3464,
      "joelhos": 3465,
      "elogios": 3466,
      "Homero": 3467,
      "ameaça": 3468,
      "dissimulada": 3469,
      "melancolia": 3470,
      "Passeio": 3471,
      "Vae": 3472,
      "Veja": 3473,
      "gamão": 3474,
      "russos": 3475,
      "dezesete": 3476,
      "ntane": 3477,
      "retorqui": 3478,
      "impulso": 3479,
      "concordou": 3480,
      "possuia": 3481,
      "louvores": 3482,
      "Basta": 3483,
      "acompanha": 3484,
      "rumor": 3485,
      "repug": 3486,
      "moeda": 3487,
      "modestia": 3488,
      "obliqua": 3489,
      "murmurou": 3490,
      "sympathia": 3491,
      "etc": 3492,
      "põe": 3493,
      "inferno": 3494,
      "aliás": 3495,
      "alliados": 3496,
      "alheias": 3497,
      "exclusi": 3498,
      "cerimonia": 3499,
      "absolutamente": 3500,
      "obsequio": 3501,
      "obstante": 3502,
      "opusculo": 3503,
      "beneficio": 3504,
      "hypothese": 3505,
      "Othello": 3506,
      "oleos": 3507,
      "arithme": 3508,
      "repartição": 3509,
      "tamanho": 3510,
      "italiano": 3511,
      "polemica": 3512,
      "vigario": 3513,
      "apezar": 3514,
      "trombeta": 3515,
      "doutrina": 3516,
      "Ap": 3517,
      "Ar": 3518,
      "Aos": 3519,
      "Bar": 3520,
      "Ch": 3521,
      "Cer": 3522,
      "Cal": 3523,
      "Dê": 3524,
      "Er": 3525,
      "Fal": 3526,
      "Fala": 3527,
      "Fica": 3528,
      "Hei": 3529,
      "Ide": 3530,
      "Int": 3531,
      "Ita": 3532,
      "Mu": 3533,
      "Mar": 3534,
      "Marte": 3535,
      "Nenh": 3536,
      "Pas": 3537,
      "Palav": 3538,
      "Rel": 3539,
      "Respo": 3540,
      "Si": 3541,
      "So": 3542,
      "Sen": 3543,
      "Sus": 3544,
      "Sinh": 3545,
      "Tra": 3546,
      "Tão": 3547,
      "Ter": 3548,
      "Vis": 3549,
      "Vim": 3550,
      "Vir": 3551,
      "amo": 3552,
      "adia": 3553,
      "ahy": 3554,
      "azas": 3555,
      "bia": 3556,
      "beiro": 3557,
      "cessa": 3558,
      "ctiva": 3559,
      "dô": 3560,
      "dára": 3561,
      "ev": 3562,
      "edu": 3563,
      "emen": 3564,
      "felo": 3565,
      "gido": 3566,
      "gru": 3567,
      "gico": 3568,
      "geito": 3569,
      "her": 3570,
      "hum": 3571,
      "hus": 3572,
      "iras": 3573,
      "irei": 3574,
      "lum": 3575,
      "lera": 3576,
      "lti": 3577,
      "lindo": 3578,
      "mio": 3579,
      "nio": 3580,
      "ndas": 3581,
      "njo": 3582,
      "nino": 3583,
      "ore": 3584,
      "olhe": 3585,
      "oph": 3586,
      "pha": 3587,
      "pent": 3588,
      "rui": 3589,
      "sio": 3590,
      "scen": 3591,
      "tto": 3592,
      "tiam": 3593,
      "trei": 3594,
      "teus": 3595,
      "vit": 3596,
      "vala": 3597,
      "vasse": 3598,
      "xar": 3599,
      "ymp": 3600,
      "zia": 3601,
      "Ás": 3602,
      "ães": 3603,
      "éra": 3604,
      "ís": 3605,
      "rame": 3606,
      "radas": 3607,
      "rações": 3608,
      "rapida": 3609,
      "rapido": 3610,
      "degra": 3611,
      "declar": 3612,
      "deitei": 3613,
      "defen": 3614,
      "assem": 3615,
      "assi": 3616,
      "quo": 3617,
      "espre": 3618,
      "escul": 3619,
      "quente": 3620,
      "queix": 3621,
      "dona": 3622,
      "sex": 3623,
      "seri": 3624,
      "secca": 3625,
      "ntin": 3626,
      "ntissimo": 3627,
      "coço": 3628,
      "coche": 3629,
      "copia": 3630,
      "meno": 3631,
      "meira": 3632,
      "arti": 3633,
      "ario": 3634,
      "ing": 3635,
      "indi": 3636,
      "inno": 3637,
      "inju": 3638,
      "datas": 3639,
      "dahi": 3640,
      "davalhe": 3641,
      "ale": 3642,
      "alle": 3643,
      "algo": 3644,
      "altura": 3645,
      "alcança": 3646,
      "alvit": 3647,
      "rear": 3648,
      "reci": 3649,
      "redar": 3650,
      "refu": 3651,
      "recado": 3652,
      "realidade": 3653,
      "reitor": 3654,
      "repent": 3655,
      "ista": 3656,
      "mad": 3657,
      "mau": 3658,
      "mago": 3659,
      "maest": 3660,
      "materias": 3661,
      "oria": 3662,
      "orgu": 3663,
      "tados": 3664,
      "tanta": 3665,
      "taqua": 3666,
      "tantos": 3667,
      "tantas": 3668,
      "tafeira": 3669,
      "tantin": 3670,
      "tomei": 3671,
      "padas": 3672,
      "padeci": 3673,
      "cano": 3674,
      "capo": 3675,
      "caminha": 3676,
      "camis": 3677,
      "cantar": 3678,
      "cantava": 3679,
      "vago": 3680,
      "vagas": 3681,
      "compor": 3682,
      "compra": 3683,
      "commodo": 3684,
      "comquanto": 3685,
      "roda": 3686,
      "roemos": 3687,
      "encontra": 3688,
      "lhou": 3689,
      "saio": 3690,
      "saias": 3691,
      "sacer": 3692,
      "sacri": 3693,
      "saimos": 3694,
      "imi": 3695,
      "impor": 3696,
      "impaciencia": 3697,
      "anec": 3698,
      "andei": 3699,
      "annuncia": 3700,
      "dicção": 3701,
      "nação": 3702,
      "naquelles": 3703,
      "namorar": 3704,
      "lacu": 3705,
      "latão": 3706,
      "ponta": 3707,
      "rica": 3708,
      "rius": 3709,
      "gui": 3710,
      "gus": 3711,
      "guns": 3712,
      "guahy": 3713,
      "lepra": 3714,
      "vira": 3715,
      "vier": 3716,
      "vidade": 3717,
      "sona": 3718,
      "soli": 3719,
      "ticos": 3720,
      "hom": 3721,
      "gol": 3722,
      "usos": 3723,
      "ustre": 3724,
      "uscrip": 3725,
      "apre": 3726,
      "appare": 3727,
      "aptis": 3728,
      "apparecia": 3729,
      "appareceu": 3730,
      "porção": 3731,
      "mon": 3732,
      "mono": 3733,
      "moles": 3734,
      "entendo": 3735,
      "enthus": 3736,
      "doso": 3737,
      "ciou": 3738,
      "cidas": 3739,
      "ciume": 3740,
      "fico": 3741,
      "ficas": 3742,
      "fitava": 3743,
      "fixa": 3744,
      "ficasse": 3745,
      "tras": 3746,
      "tratar": 3747,
      "tratava": 3748,
      "traves": 3749,
      "despre": 3750,
      "descre": 3751,
      "desfazer": 3752,
      "desgraça": 3753,
      "lio": 3754,
      "liber": 3755,
      "resur": 3756,
      "resistencia": 3757,
      "pedindo": 3758,
      "tecto": 3759,
      "conce": 3760,
      "conju": 3761,
      "conego": 3762,
      "casti": 3763,
      "ambi": 3764,
      "uido": 3765,
      "uito": 3766,
      "uidade": 3767,
      "ndou": 3768,
      "dassem": 3769,
      "chas": 3770,
      "chita": 3771,
      "chil": 3772,
      "discre": 3773,
      "dispos": 3774,
      "dispensa": 3775,
      "perna": 3776,
      "perdia": 3777,
      "persuas": 3778,
      "perfeição": 3779,
      "persona": 3780,
      "culas": 3781,
      "prote": 3782,
      "procu": 3783,
      "procura": 3784,
      "mosos": 3785,
      "gados": 3786,
      "gaio": 3787,
      "gadas": 3788,
      "irro": 3789,
      "irmã": 3790,
      "servia": 3791,
      "ecia": 3792,
      "paro": 3793,
      "parenta": 3794,
      "rasos": 3795,
      "terão": 3796,
      "bolas": 3797,
      "attenta": 3798,
      "fomos": 3799,
      "exer": 3800,
      "exis": 3801,
      "exces": 3802,
      "exposição": 3803,
      "excelle": 3804,
      "contos": 3805,
      "estando": 3806,
      "estamos": 3807,
      "facilidade": 3808,
      "temos": 3809,
      "acções": 3810,
      "accent": 3811,
      "casado": 3812,
      "disseram": 3813,
      "mudar": 3814,
      "multi": 3815,
      "suras": 3816,
      "carn": 3817,
      "cargo": 3818,
      "carne": 3819,
      "duro": 3820,
      "faltar": 3821,
      "falasse": 3822,
      "creia": 3823,
      "pasmado": 3824,
      "toria": 3825,
      "dará": 3826,
      "darme": 3827,
      "darlhe": 3828,
      "pupi": 3829,
      "pendu": 3830,
      "pendente": 3831,
      "morria": 3832,
      "Come": 3833,
      "gostei": 3834,
      "gostando": 3835,
      "tase": 3836,
      "tassem": 3837,
      "valha": 3838,
      "valeu": 3839,
      "chado": 3840,
      "chapé": 3841,
      "chaves": 3842,
      "chamou": 3843,
      "aberto": 3844,
      "fechou": 3845,
      "nsões": 3846,
      "talos": 3847,
      "presilhas": 3848,
      "pressões": 3849,
      "lhados": 3850,
      "poude": 3851,
      "poupa": 3852,
      "milh": 3853,
      "lembras": 3854,
      "ásinha": 3855,
      "marcha": 3856,
      "nascer": 3857,
      "esteve": 3858,
      "bachar": 3859,
      "bairro": 3860,
      "volu": 3861,
      "pescoço": 3862,
      "pergunto": 3863,
      "jogar": 3864,
      "jogando": 3865,
      "deixo": 3866,
      "deixára": 3867,
      "malicia": 3868,
      "pedido": 3869,
      "jul": 3870,
      "jurar": 3871,
      "interno": 3872,
      "interval": 3873,
      "intervenção": 3874,
      "forme": 3875,
      "forma": 3876,
      "fortuna": 3877,
      "formula": 3878,
      "obs": 3879,
      "estavamos": 3880,
      "verdadeiras": 3881,
      "nega": 3882,
      "necimento": 3883,
      "mental": 3884,
      "lembrava": 3885,
      "estive": 3886,
      "estiver": 3887,
      "confusas": 3888,
      "quadro": 3889,
      "insinu": 3890,
      "chegava": 3891,
      "rupulo": 3892,
      "queiro": 3893,
      "razões": 3894,
      "adoravel": 3895,
      "timidez": 3896,
      "traziam": 3897,
      "icamente": 3898,
      "calix": 3899,
      "lutar": 3900,
      "manuscrip": 3901,
      "expliquei": 3902,
      "tremu": 3903,
      "trepadas": 3904,
      "capei": 3905,
      "capitu": 3906,
      "contraregra": 3907,
      "davame": 3908,
      "pheno": 3909,
      "repetindo": 3910,
      "elogia": 3911,
      "elogio": 3912,
      "teimava": 3913,
      "teimasse": 3914,
      "sorriso": 3915,
      "esquecido": 3916,
      "longo": 3917,
      "longos": 3918,
      "leiro": 3919,
      "pequenino": 3920,
      "bastaria": 3921,
      "itado": 3922,
      "começava": 3923,
      "adver": 3924,
      "admit": 3925,
      "opla": 3926,
      "douro": 3927,
      "nhados": 3928,
      "testem": 3929,
      "beb": 3930,
      "beber": 3931,
      "cuidava": 3932,
      "cuidei": 3933,
      "cuidado": 3934,
      "escrevi": 3935,
      "cavalleiro": 3936,
      "aug": 3937,
      "achado": 3938,
      "levantar": 3939,
      "levantou": 3940,
      "somno": 3941,
      "correndo": 3942,
      "respondeume": 3943,
      "entrava": 3944,
      "cripção": 3945,
      "genio": 3946,
      "pratica": 3947,
      "sentimentos": 3948,
      "lances": 3949,
      "desejos": 3950,
      "haverme": 3951,
      "medida": 3952,
      "ganha": 3953,
      "entendi": 3954,
      "entendido": 3955,
      "espada": 3956,
      "confessoume": 3957,
      "beija": 3958,
      "pedirlhe": 3959,
      "barbeiro": 3960,
      "crescendo": 3961,
      "possiveis": 3962,
      "escuro": 3963,
      "ordens": 3964,
      "companheiro": 3965,
      "companheiros": 3966,
      "creanço": 3967,
      "batia": 3968,
      "batendo": 3969,
      "ultimas": 3970,
      "Santissimo": 3971,
      "cabello": 3972,
      "Perfeitamente": 3973,
      "tandome": 3974,
      "viuvou": 3975,
      "separar": 3976,
      "firme": 3977,
      "centes": 3978,
      "gestão": 3979,
      "trinta": 3980,
      "mouro": 3981,
      "escolha": 3982,
      "contente": 3983,
      "retratos": 3984,
      "saíam": 3985,
      "chegando": 3986,
      "duzia": 3987,
      "egua": 3988,
      "fará": 3989,
      "officios": 3990,
      "esperou": 3991,
      "escripta": 3992,
      "Todo": 3993,
      "Todos": 3994,
      "custou": 3995,
      "tristes": 3996,
      "obrigado": 3997,
      "concluir": 3998,
      "vestir": 3999,
      "conselhos": 4000,
      "consequencia": 4001,
      "pareceume": 4002,
      "apagou": 4003,
      "tello": 4004,
      "recebeu": 4005,
      "guardei": 4006,
      "descober": 4007,
      "acceito": 4008,
      "embarque": 4009,
      "digame": 4010,
      "despediuse": 4011,
      "curioso": 4012,
      "aborrecer": 4013,
      "mettida": 4014,
      "segredinhos": 4015,
      "erguia": 4016,
      "repliquei": 4017,
      "dirá": 4018,
      "dormia": 4019,
      "escrupulo": 4020,
      "recuar": 4021,
      "recusa": 4022,
      "emoções": 4023,
      "transcre": 4024,
      "transfer": 4025,
      "respostas": 4026,
      "abaixo": 4027,
      "reflecti": 4028,
      "reflectia": 4029,
      "sincera": 4030,
      "truir": 4031,
      "demona": 4032,
      "collega": 4033,
      "andavam": 4034,
      "figuras": 4035,
      "consultar": 4036,
      "exacta": 4037,
      "exactamente": 4038,
      "Desdemona": 4039,
      "hesita": 4040,
      "hesitou": 4041,
      "solução": 4042,
      "difficil": 4043,
      "pancada": 4044,
      "levala": 4045,
      "estreme": 4046,
      "estrellas": 4047,
      "accendeu": 4048,
      "passear": 4049,
      "tornava": 4050,
      "obedeci": 4051,
      "Alguns": 4052,
      "Medo": 4053,
      "atraves": 4054,
      "frente": 4055,
      "finado": 4056,
      "importante": 4057,
      "pegoume": 4058,
      "concili": 4059,
      "perigo": 4060,
      "serviço": 4061,
      "serviços": 4062,
      "Estavamos": 4063,
      "acostum": 4064,
      "accordo": 4065,
      "succedeu": 4066,
      "peraltas": 4067,
      "autoridade": 4068,
      "patha": 4069,
      "confirmou": 4070,
      "explicações": 4071,
      "recordação": 4072,
      "religiosos": 4073,
      "Leva": 4074,
      "Nosso": 4075,
      "encoberto": 4076,
      "levarlhe": 4077,
      "perdoa": 4078,
      "atordo": 4079,
      "examin": 4080,
      "examinar": 4081,
      "familiar": 4082,
      "Corri": 4083,
      "Pensei": 4084,
      "azul": 4085,
      "punha": 4086,
      "regres": 4087,
      "chorou": 4088,
      "ordenado": 4089,
      "agradeceu": 4090,
      "dissimulação": 4091,
      "escravos": 4092,
      "superlativos": 4093,
      "semelhança": 4094,
      "Posso": 4095,
      "Sabes": 4096,
      "acompanhar": 4097,
      "escapa": 4098,
      "esforço": 4099,
      "esforços": 4100,
      "imperio": 4101,
      "movimentos": 4102,
      "prometto": 4103,
      "baixa": 4104,
      "insistisse": 4105,
      "commercio": 4106,
      "Tanto": 4107,
      "aviso": 4108,
      "apanhar": 4109,
      "cór": 4110,
      "econo": 4111,
      "fresca": 4112,
      "piston": 4113,
      "querido": 4114,
      "sereno": 4115,
      "secreta": 4116,
      "incidente": 4117,
      "habitual": 4118,
      "caíam": 4119,
      "animoume": 4120,
      "desvanecimento": 4121,
      "destinado": 4122,
      "despedirse": 4123,
      "restabel": 4124,
      "facilmente": 4125,
      "baile": 4126,
      "Outrosim": 4127,
      "espectaculo": 4128,
      "circumstancias": 4129,
      "Accei": 4130,
      "Cuidei": 4131,
      "Duas": 4132,
      "Logo": 4133,
      "Verdade": 4134,
      "evidente": 4135,
      "flores": 4136,
      "espelho": 4137,
      "embru": 4138,
      "lentamente": 4139,
      "desastre": 4140,
      "Constantin": 4141,
      "interessante": 4142,
      "Pegueilhe": 4143,
      "dissimular": 4144,
      "metaphora": 4145,
      "Publico": 4146,
      "Trazia": 4147,
      "acanha": 4148,
      "désse": 4149,
      "juizo": 4150,
      "astronomia": 4151,
      "remorso": 4152,
      "reminiscencias": 4153,
      "vantagem": 4154,
      "naturaes": 4155,
      "aprovei": 4156,
      "vergonha": 4157,
      "sujeito": 4158,
      "philosoph": 4159,
      "estudante": 4160,
      "retorquiu": 4161,
      "arithmeticas": 4162,
      "Cheg": 4163,
      "Ergu": 4164,
      "Itaguahy": 4165,
      "Palavra": 4166,
      "Sirius": 4167,
      "evitar": 4168,
      "orelhas": 4169,
      "alvitre": 4170,
      "repentina": 4171,
      "maestro": 4172,
      "orgulho": 4173,
      "taquara": 4174,
      "sacerdo": 4175,
      "anecdo": 4176,
      "molestias": 4177,
      "enthusias": 4178,
      "liberdade": 4179,
      "persuasão": 4180,
      "pupillas": 4181,
      "chapéo": 4182,
      "bacharel": 4183,
      "phenomeno": 4184,
      "Constantinopla": 4185,
      "!)": 4186,
      "070": 4187,
      "?...": 4188,
      "Au": 4189,
      "Ama": 4190,
      "Anto": 4191,
      "Apes": 4192,
      "Aquella": 4193,
      "Amanhã": 4194,
      "Acho": 4195,
      "Achei": 4196,
      "Cá": 4197,
      "Can": 4198,
      "Cus": 4199,
      "Canti": 4200,
      "Centra": 4201,
      "Dalli": 4202,
      "Ef": 4203,
      "Fa": 4204,
      "Faz": 4205,
      "Gos": 4206,
      "Has": 4207,
      "Im": 4208,
      "Imag": 4209,
      "Jura": 4210,
      "Lu": 4211,
      "Lia": 4212,
      "Lapa": 4213,
      "Mi": 4214,
      "Mos": 4215,
      "Maria": 4216,
      "Mil": 4217,
      "Nisto": 4218,
      "Olhos": 4219,
      "Pria": 4220,
      "Praz": 4221,
      "Pelo": 4222,
      "Sei": 4223,
      "Tendo": 4224,
      "Vão": 4225,
      "Vinha": 4226,
      "Venho": 4227,
      "_d": 4228,
      "_p": 4229,
      "_z": 4230,
      "_Canti": 4231,
      "avi": 4232,
      "ago": 4233,
      "ados": 4234,
      "adu": 4235,
      "ador": 4236,
      "abom": 4237,
      "aconse": 4238,
      "atirar": 4239,
      "aquellas": 4240,
      "aventura": 4241,
      "bio": 4242,
      "bido": 4243,
      "baptis": 4244,
      "cter": 4245,
      "cães": 4246,
      "equi": 4247,
      "fô": 4248,
      "fas": 4249,
      "fit": 4250,
      "fri": 4251,
      "fus": 4252,
      "ffi": 4253,
      "fria": 4254,
      "fru": 4255,
      "gr": 4256,
      "ges": 4257,
      "gro": 4258,
      "gir": 4259,
      "gindo": 4260,
      "iva": 4261,
      "ides": 4262,
      "icas": 4263,
      "idas": 4264,
      "ivel": 4265,
      "iram": 4266,
      "iões": 4267,
      "imento": 4268,
      "igem": 4269,
      "icias": 4270,
      "iremos": 4271,
      "jando": 4272,
      "jesta": 4273,
      "lgu": 4274,
      "lina": 4275,
      "linas": 4276,
      "lustre": 4277,
      "mme": 4278,
      "mbo": 4279,
      "mina": 4280,
      "ner": 4281,
      "nou": 4282,
      "nei": 4283,
      "ndos": 4284,
      "nellas": 4285,
      "nymp": 4286,
      "ol": 4287,
      "ola": 4288,
      "odio": 4289,
      "peu": 4290,
      "ptor": 4291,
      "pru": 4292,
      "rinho": 4293,
      "rámos": 4294,
      "rára": 4295,
      "rquia": 4296,
      "sia": 4297,
      "sui": 4298,
      "sinh": 4299,
      "sino": 4300,
      "tinho": 4301,
      "tingu": 4302,
      "tinas": 4303,
      "ues": 4304,
      "ual": 4305,
      "uando": 4306,
      "uga": 4307,
      "ufra": 4308,
      "vás": 4309,
      "veste": 4310,
      "vessa": 4311,
      "vimos": 4312,
      "ylo": 4313,
      "zer": 4314,
      "»;": 4315,
      "ãos": 4316,
      "çó": 4317,
      "ía": 4318,
      "rados": 4319,
      "ramente": 4320,
      "racio": 4321,
      "rabe": 4322,
      "dedo": 4323,
      "deco": 4324,
      "dela": 4325,
      "deus": 4326,
      "demas": 4327,
      "decis": 4328,
      "devesse": 4329,
      "debu": 4330,
      "delidade": 4331,
      "demanda": 4332,
      "defeitos": 4333,
      "asper": 4334,
      "assas": 4335,
      "qué": 4336,
      "ques": 4337,
      "quina": 4338,
      "escas": 4339,
      "ester": 4340,
      "estudo": 4341,
      "escan": 4342,
      "espia": 4343,
      "espalha": 4344,
      "escapei": 4345,
      "esquina": 4346,
      "quete": 4347,
      "queza": 4348,
      "queixo": 4349,
      "doç": 4350,
      "doeume": 4351,
      "sec": 4352,
      "seculo": 4353,
      "sexo": 4354,
      "nti": 4355,
      "ntoume": 4356,
      "ntura": 4357,
      "ntouse": 4358,
      "co_": 4359,
      "cog": 4360,
      "coce": 4361,
      "color": 4362,
      "collo": 4363,
      "corações": 4364,
      "coqueiro": 4365,
      "menta": 4366,
      "metal": 4367,
      "aro": 4368,
      "arra": 4369,
      "arme": 4370,
      "argu": 4371,
      "arras": 4372,
      "archa": 4373,
      "arios": 4374,
      "inos": 4375,
      "incre": 4376,
      "inellas": 4377,
      "infec": 4378,
      "incons": 4379,
      "investi": 4380,
      "indose": 4381,
      "ineime": 4382,
      "incommodo": 4383,
      "inimi": 4384,
      "dan": 4385,
      "dans": 4386,
      "iando": 4387,
      "alar": 4388,
      "alis": 4389,
      "alva": 4390,
      "allu": 4391,
      "altitu": 4392,
      "alcunha": 4393,
      "rec": 4394,
      "redo": 4395,
      "reis": 4396,
      "reou": 4397,
      "redi": 4398,
      "recre": 4399,
      "recer": 4400,
      "recto": 4401,
      "recons": 4402,
      "reprehen": 4403,
      "reconcilia": 4404,
      "issão": 4405,
      "oulhe": 4406,
      "mano": 4407,
      "mados": 4408,
      "mani": 4409,
      "empen": 4410,
      "emfim": 4411,
      "orme": 4412,
      "origem": 4413,
      "tan": 4414,
      "tavam": 4415,
      "tanda": 4416,
      "tome": 4417,
      "tona": 4418,
      "tomo": 4419,
      "tolera": 4420,
      "tochas": 4421,
      "paciente": 4422,
      "hado": 4423,
      "haja": 4424,
      "havelo": 4425,
      "capa": 4426,
      "cados": 4427,
      "caix": 4428,
      "camar": 4429,
      "causas": 4430,
      "van": 4431,
      "vaes": 4432,
      "vação": 4433,
      "varas": 4434,
      "vacca": 4435,
      "compensar": 4436,
      "rono": 4437,
      "roman": 4438,
      "rompeu": 4439,
      "envel": 4440,
      "enfei": 4441,
      "encos": 4442,
      "encias": 4443,
      "enviuvou": 4444,
      "enorme": 4445,
      "sacu": 4446,
      "imas": 4447,
      "imit": 4448,
      "impedi": 4449,
      "impaciente": 4450,
      "ancioso": 4451,
      "--...": 4452,
      "diu": 4453,
      "diço": 4454,
      "dicina": 4455,
      "nadar": 4456,
      "naufra": 4457,
      "ladeira": 4458,
      "lazer": 4459,
      "itouse": 4460,
      "notas": 4461,
      "nobre": 4462,
      "novos": 4463,
      "poli": 4464,
      "ponde": 4465,
      "ridi": 4466,
      "rivel": 4467,
      "rival": 4468,
      "rijo": 4469,
      "ridão": 4470,
      "gueira": 4471,
      "lez": 4472,
      "lento": 4473,
      "leval": 4474,
      "legado": 4475,
      "lentes": 4476,
      "levei": 4477,
      "parado": 4478,
      "parava": 4479,
      "parando": 4480,
      "vição": 4481,
      "vivesse": 4482,
      "viveu": 4483,
      "viessem": 4484,
      "soou": 4485,
      "tivel": 4486,
      "tinta": 4487,
      "tidão": 4488,
      "tirava": 4489,
      "tivera": 4490,
      "gover": 4491,
      "ape": 4492,
      "apres": 4493,
      "appro": 4494,
      "appar": 4495,
      "appla": 4496,
      "portu": 4497,
      "portão": 4498,
      "porquanto": 4499,
      "more": 4500,
      "monos": 4501,
      "moder": 4502,
      "mobi": 4503,
      "moveis": 4504,
      "montar": 4505,
      "modesta": 4506,
      "mocinho": 4507,
      "molhados": 4508,
      "enti": 4509,
      "dosa": 4510,
      "cipi": 4511,
      "cigana": 4512,
      "cintura": 4513,
      "fio": 4514,
      "fila": 4515,
      "filia": 4516,
      "fiquemos": 4517,
      "ficára": 4518,
      "fidelidade": 4519,
      "trar": 4520,
      "tratei": 4521,
      "tragico": 4522,
      "desco": 4523,
      "dessem": 4524,
      "desespera": 4525,
      "desment": 4526,
      "desses": 4527,
      "desconhe": 4528,
      "despeito": 4529,
      "desceram": 4530,
      "deslum": 4531,
      "lir": 4532,
      "lime": 4533,
      "lica": 4534,
      "ligar": 4535,
      "licos": 4536,
      "livida": 4537,
      "libre": 4538,
      "ligado": 4539,
      "locu": 4540,
      "logos": 4541,
      "resis": 4542,
      "respei": 4543,
      "respeito": 4544,
      "resumo": 4545,
      "pegava": 4546,
      "pebras": 4547,
      "pectiva": 4548,
      "tuosas": 4549,
      "temente": 4550,
      "concer": 4551,
      "convida": 4552,
      "veja": 4553,
      "vejo": 4554,
      "verá": 4555,
      "casou": 4556,
      "casta": 4557,
      "amua": 4558,
      "uição": 4559,
      "chinellas": 4560,
      "disser": 4561,
      "disposto": 4562,
      "dissimo": 4563,
      "disposição": 4564,
      "distrib": 4565,
      "distingu": 4566,
      "çados": 4567,
      "perda": 4568,
      "perdi": 4569,
      "perfi": 4570,
      "perio": 4571,
      "persegu": 4572,
      "perfeito": 4573,
      "cula": 4574,
      "curou": 4575,
      "cujo": 4576,
      "propos": 4577,
      "profun": 4578,
      "prophe": 4579,
      "mostre": 4580,
      "ganta": 4581,
      "gatorio": 4582,
      "irri": 4583,
      "irmão": 4584,
      "serão": 4585,
      "eciam": 4586,
      "simas": 4587,
      "simul": 4588,
      "parcei": 4589,
      "partitu": 4590,
      "rases": 4591,
      "terras": 4592,
      "teriam": 4593,
      "terror": 4594,
      "bonos": 4595,
      "boce": 4596,
      "botas": 4597,
      "atou": 4598,
      "attrib": 4599,
      "prei": 4600,
      "prego": 4601,
      "prece": 4602,
      "preço": 4603,
      "pretas": 4604,
      "prendia": 4605,
      "premio": 4606,
      "predicção": 4607,
      "precipi": 4608,
      "tarme": 4609,
      "taruga": 4610,
      "fogo": 4611,
      "exal": 4612,
      "exce": 4613,
      "exag": 4614,
      "extin": 4615,
      "expressões": 4616,
      "contras": 4617,
      "contasse": 4618,
      "contado": 4619,
      "fag": 4620,
      "facto": 4621,
      "gravis": 4622,
      "graves": 4623,
      "Esse": 4624,
      "Escu": 4625,
      "brame": 4626,
      "temse": 4627,
      "temor": 4628,
      "cede": 4629,
      "velos": 4630,
      "união": 4631,
      "uncado": 4632,
      "estylo": 4633,
      "olho": 4634,
      "cabia": 4635,
      "acces": 4636,
      "acredi": 4637,
      "inadas": 4638,
      "dizela": 4639,
      "casados": 4640,
      "mudado": 4641,
      "pello": 4642,
      "Qual": 4643,
      "intri": 4644,
      "suffi": 4645,
      "caricias": 4646,
      "ducção": 4647,
      "falo": 4648,
      "faltava": 4649,
      "faloume": 4650,
      "viagens": 4651,
      "nhas": 4652,
      "credor": 4653,
      "postura": 4654,
      "corda": 4655,
      "corne": 4656,
      "tornar": 4657,
      "darias": 4658,
      "cerca": 4659,
      "puder": 4660,
      "eramme": 4661,
      "Conto": 4662,
      "coberto": 4663,
      "fazelas": 4664,
      "ntados": 4665,
      "sabido": 4666,
      "tosse": 4667,
      "garme": 4668,
      "garganta": 4669,
      "chave": 4670,
      "chamei": 4671,
      "chamando": 4672,
      "feia": 4673,
      "fechei": 4674,
      "feios": 4675,
      "feitas": 4676,
      "visão": 4677,
      "visit": 4678,
      "visinhos": 4679,
      "visinhas": 4680,
      "talento": 4681,
      "costura": 4682,
      "cosido": 4683,
      "presente": 4684,
      "presilha": 4685,
      "poucas": 4686,
      "dormin": 4687,
      "dormi": 4688,
      "Massin": 4689,
      "mares": 4690,
      "maria": 4691,
      "marcado": 4692,
      "nasse": 4693,
      "nasceu": 4694,
      "rouse": 4695,
      "roume": 4696,
      "ouviram": 4697,
      "parecelhe": 4698,
      "bailar": 4699,
      "javamos": 4700,
      "jogo": 4701,
      "deixando": 4702,
      "acabando": 4703,
      "acabado": 4704,
      "achas": 4705,
      "acharia": 4706,
      "pedilhe": 4707,
      "juca": 4708,
      "jurava": 4709,
      "juremos": 4710,
      "feznos": 4711,
      "seguido": 4712,
      "seguiu": 4713,
      "seguida": 4714,
      "interru": 4715,
      "internun": 4716,
      "interlocu": 4717,
      "Ashaver": 4718,
      "fortes": 4719,
      "melhores": 4720,
      "fere": 4721,
      "rarme": 4722,
      "esperasse": 4723,
      "ceira": 4724,
      "quizessem": 4725,
      "pódese": 4726,
      "lembrando": 4727,
      "lembranças": 4728,
      "fugia": 4729,
      "fulgu": 4730,
      "touca": 4731,
      "pião": 4732,
      "pidas": 4733,
      "piedade": 4734,
      "metta": 4735,
      "hase": 4736,
      "falará": 4737,
      "confissão": 4738,
      "inscripção": 4739,
      "chego": 4740,
      "Pobre": 4741,
      "rugada": 4742,
      "cabeças": 4743,
      "timo": 4744,
      "timida": 4745,
      "iuse": 4746,
      "iume": 4747,
      "calli": 4748,
      "calculo": 4749,
      "mangas": 4750,
      "explico": 4751,
      "explicasse": 4752,
      "Emquanto": 4753,
      "mensa": 4754,
      "meninas": 4755,
      "fizemos": 4756,
      "treze": 4757,
      "manheceu": 4758,
      "entretanto": 4759,
      "contraria": 4760,
      "Novem": 4761,
      "palpebras": 4762,
      "inuteis": 4763,
      "ficação": 4764,
      "mister": 4765,
      "missão": 4766,
      "phrases": 4767,
      "vasto": 4768,
      "repetiam": 4769,
      "falara": 4770,
      "teimou": 4771,
      "teimosos": 4772,
      "veneno": 4773,
      "deitado": 4774,
      "fazerse": 4775,
      "sorria": 4776,
      "trocou": 4777,
      "caracter": 4778,
      "morava": 4779,
      "leitura": 4780,
      "bastoume": 4781,
      "adverti": 4782,
      "busquei": 4783,
      "buscasse": 4784,
      "opinar": 4785,
      "doulhe": 4786,
      "Turquia": 4787,
      "bigo": 4788,
      "Ouço": 4789,
      "aggra": 4790,
      "bema": 4791,
      "diase": 4792,
      "curto": 4793,
      "curtos": 4794,
      "cursos": 4795,
      "cuides": 4796,
      "estariam": 4797,
      "censu": 4798,
      "voltado": 4799,
      "panhas": 4800,
      "levado": 4801,
      "levanta": 4802,
      "somb": 4803,
      "sombras": 4804,
      "fectivo": 4805,
      "entrado": 4806,
      "entrando": 4807,
      "entraram": 4808,
      "genero": 4809,
      "haviam": 4810,
      "haviamos": 4811,
      "cançou": 4812,
      "atropello": 4813,
      "cumpre": 4814,
      "lençó": 4815,
      "varias": 4816,
      "desej": 4817,
      "haverá": 4818,
      "acheio": 4819,
      "mpesse": 4820,
      "entendeu": 4821,
      "cessos": 4822,
      "espanto": 4823,
      "espantada": 4824,
      "beijei": 4825,
      "chovia": 4826,
      "chorei": 4827,
      "crescente": 4828,
      "possibilidade": 4829,
      "repetir": 4830,
      "apertou": 4831,
      "apertando": 4832,
      "apertoume": 4833,
      "Vivia": 4834,
      "effectivo": 4835,
      "fundos": 4836,
      "escuras": 4837,
      "escutava": 4838,
      "ordene": 4839,
      "ordenar": 4840,
      "companheira": 4841,
      "Comtudo": 4842,
      "Comprehen": 4843,
      "olhavam": 4844,
      "theoria": 4845,
      "vese": 4846,
      "cabellei": 4847,
      "passarinhos": 4848,
      "Perdão": 4849,
      "Reduz": 4850,
      "comprar": 4851,
      "comprim": 4852,
      "saudade": 4853,
      "subia": 4854,
      "sublime": 4855,
      "acudir": 4856,
      "hostia": 4857,
      "mirar": 4858,
      "agrado": 4859,
      "centro": 4860,
      "fluido": 4861,
      "fugindo": 4862,
      "fugiu": 4863,
      "fugisse": 4864,
      "fugiti": 4865,
      "adagio": 4866,
      "emende": 4867,
      "emendou": 4868,
      "podemos": 4869,
      "chegámos": 4870,
      "duzido": 4871,
      "conversando": 4872,
      "conversações": 4873,
      "fariam": 4874,
      "tissimo": 4875,
      "escriptor": 4876,
      "escriptorio": 4877,
      "recordando": 4878,
      "cheios": 4879,
      "prender": 4880,
      "Consi": 4881,
      "risonho": 4882,
      "reflexo": 4883,
      "historias": 4884,
      "terraço": 4885,
      "occasiões": 4886,
      "Quantas": 4887,
      "creação": 4888,
      "opinou": 4889,
      "brincar": 4890,
      "brincava": 4891,
      "louva": 4892,
      "louça": 4893,
      "digno": 4894,
      "digam": 4895,
      "digamos": 4896,
      "peccados": 4897,
      "recebendo": 4898,
      "descobria": 4899,
      "amarellas": 4900,
      "amarissimo": 4901,
      "acceitar": 4902,
      "acceitou": 4903,
      "Dizem": 4904,
      "amada": 4905,
      "apoli": 4906,
      "apontando": 4907,
      "bulha": 4908,
      "bello": 4909,
      "bellos": 4910,
      "droga": 4911,
      "eternidade": 4912,
      "pintado": 4913,
      "sester": 4914,
      "alegres": 4915,
      "embarcar": 4916,
      "pagão": 4917,
      "pagina": 4918,
      "lavadouro": 4919,
      "despedime": 4920,
      "despedidas": 4921,
      "curiosa": 4922,
      "exemplar": 4923,
      "contavame": 4924,
      "aborrecida": 4925,
      "mettesse": 4926,
      "mettelo": 4927,
      "tristezas": 4928,
      "calados": 4929,
      "franca": 4930,
      "france": 4931,
      "dirão": 4932,
      "Contra": 4933,
      "Continu": 4934,
      "186": 4935,
      "aguas": 4936,
      "piração": 4937,
      "escrava": 4938,
      "cochil": 4939,
      "recuei": 4940,
      "emprego": 4941,
      "empreguei": 4942,
      "abati": 4943,
      "abafa": 4944,
      "abatido": 4945,
      "reflectir": 4946,
      "reflectindo": 4947,
      "apostolos": 4948,
      "Elles": 4949,
      "Promet": 4950,
      "Protonotario": 4951,
      "truncado": 4952,
      "demorar": 4953,
      "cançado": 4954,
      "communica": 4955,
      "confidencia": 4956,
      "prompta": 4957,
      "extranho": 4958,
      "Queria": 4959,
      "Desde": 4960,
      "Tijuca": 4961,
      "banal": 4962,
      "hesitar": 4963,
      "religião": 4964,
      "campanhas": 4965,
      "sonetos": 4966,
      "pergunteilhe": 4967,
      "fechando": 4968,
      "Deixa": 4969,
      "Iago": 4970,
      "Sub": 4971,
      "dinheiros": 4972,
      "onze": 4973,
      "tentei": 4974,
      "espiar": 4975,
      "panno": 4976,
      "enchia": 4977,
      "pedaços": 4978,
      "unicamente": 4979,
      "estrepito": 4980,
      "tornavam": 4981,
      "deixavam": 4982,
      "perguntarlhe": 4983,
      "pallida": 4984,
      "cincoenta": 4985,
      "Algum": 4986,
      "Medicina": 4987,
      "berço": 4988,
      "brilha": 4989,
      "grosso": 4990,
      "grossos": 4991,
      "colera": 4992,
      "namorada": 4993,
      "namorados": 4994,
      "honra": 4995,
      "honras": 4996,
      "pegam": 4997,
      "pegasse": 4998,
      "convidar": 4999,
      "brancos": 5000,
      "confiança": 5001,
      "culpadas": 5002,
      "Excelle": 5003,
      "acontecia": 5004,
      "acontecimentos": 5005,
      "magro": 5006,
      "magni": 5007,
      "pathi": 5008,
      "engano": 5009,
      "enganar": 5010,
      "adolescente": 5011,
      "adolescentes": 5012,
      "explicaveis": 5013,
      "padrinho": 5014,
      "padecer": 5015,
      "ensinar": 5016,
      "divertir": 5017,
      "affirma": 5018,
      "familias": 5019,
      "familiares": 5020,
      "politico": 5021,
      "Disseme": 5022,
      "Disselhe": 5023,
      "Isso": 5024,
      "Penso": 5025,
      "Senti": 5026,
      "piscando": 5027,
      "zangado": 5028,
      "devota": 5029,
      "desenho": 5030,
      "referir": 5031,
      "mandei": 5032,
      "enfiou": 5033,
      "satisfeito": 5034,
      "direcção": 5035,
      "direitos": 5036,
      "tirouse": 5037,
      "choro": 5038,
      "disfarçar": 5039,
      "atrevidas": 5040,
      "gravata": 5041,
      "anteriores": 5042,
      "bilhetes": 5043,
      "ordenação": 5044,
      "affligia": 5045,
      "Homem": 5046,
      "adivinhando": 5047,
      "superlativo": 5048,
      "semelhanças": 5049,
      "Posto": 5050,
      "cruel": 5051,
      "humana": 5052,
      "humanas": 5053,
      "prosa": 5054,
      "devedor": 5055,
      "dezeseis": 5056,
      "escapou": 5057,
      "nteilhe": 5058,
      "allopathia": 5059,
      "alcançar": 5060,
      "recusou": 5061,
      "enfiado": 5062,
      "enfiados": 5063,
      "imperial": 5064,
      "impulsos": 5065,
      "movimento": 5066,
      "peçolhe": 5067,
      "vexame": 5068,
      "chuva": 5069,
      "promettia": 5070,
      "bondade": 5071,
      "bonitos": 5072,
      "preferia": 5073,
      "baixinho": 5074,
      "voltouse": 5075,
      "observou": 5076,
      "affectuosas": 5077,
      "interromper": 5078,
      "interrompida": 5079,
      "arrependimento": 5080,
      "extraordinario": 5081,
      "extraordinariamente": 5082,
      "Deixei": 5083,
      "obedecia": 5084,
      "inclinação": 5085,
      "acostumado": 5086,
      "Chama": 5087,
      "córos": 5088,
      "evocava": 5089,
      "geral": 5090,
      "nup": 5091,
      "pôlo": 5092,
      "pistola": 5093,
      "quantos": 5094,
      "espontane": 5095,
      "secreto": 5096,
      "almoçar": 5097,
      "pagamento": 5098,
      "comprido": 5099,
      "enferma": 5100,
      "enfermeira": 5101,
      "dimensões": 5102,
      "socegado": 5103,
      "approvação": 5104,
      "tranqui": 5105,
      "destinada": 5106,
      "distrah": 5107,
      "Conhe": 5108,
      "abanou": 5109,
      "abanava": 5110,
      "objecto": 5111,
      "objectos": 5112,
      "Pedilhe": 5113,
      "affligir": 5114,
      "necessaria": 5115,
      "necessario": 5116,
      "universidade": 5117,
      "circumstancia": 5118,
      "Caminh": 5119,
      "Santo": 5120,
      "Venha": 5121,
      "aventu": 5122,
      "aventuras": 5123,
      "dême": 5124,
      "vulgar": 5125,
      "mediante": 5126,
      "cautel": 5127,
      "compozse": 5128,
      "dividir": 5129,
      "modelo": 5130,
      "cunhadinha": 5131,
      "propozme": 5132,
      "preparação": 5133,
      "externo": 5134,
      "duvidar": 5135,
      "essencial": 5136,
      "fortaleza": 5137,
      "suspirando": 5138,
      "physica": 5139,
      "soubesse": 5140,
      "definitiva": 5141,
      "Monica_": 5142,
      "Supponha": 5143,
      "celebre": 5144,
      "celebres": 5145,
      "Expliqueilhe": 5146,
      "Lembrame": 5147,
      "Majesta": 5148,
      "crê": 5149,
      "fòro": 5150,
      "pódes": 5151,
      "dominava": 5152,
      "armazem": 5153,
      "reformar": 5154,
      "recommendações": 5155,
      "comprimentar": 5156,
      "romper": 5157,
      "imprimilo": 5158,
      "lampião": 5159,
      "victima": 5160,
      "apalpa": 5161,
      "desciam": 5162,
      "considera": 5163,
      "consegui": 5164,
      "conceito": 5165,
      "confuso": 5166,
      "permittia": 5167,
      "attento": 5168,
      "experimentar": 5169,
      "exquisita": 5170,
      "faceis": 5171,
      "correspondente": 5172,
      "absolvição": 5173,
      "maluqui": 5174,
      "fórma": 5175,
      "abraçoume": 5176,
      "substitu": 5177,
      "Enxuguei": 5178,
      "inquieto": 5179,
      "exclusivamente": 5180,
      "Barbonos": 5181,
      "Calouse": 5182,
      "Falava": 5183,
      "Ideia": 5184,
      "Nenhum": 5185,
      "Respondi": 5186,
      "Sinhásinha": 5187,
      "emendar": 5188,
      "éramos": 5189,
      "esculptor": 5190,
      "inglez": 5191,
      "innocente": 5192,
      "injuria": 5193,
      "redargu": 5194,
      "madrugada": 5195,
      "golpe": 5196,
      "travessuras": 5197,
      "desprezo": 5198,
      "resurrei": 5199,
      "ambição": 5200,
      "personagens": 5201,
      "paroch": 5202,
      "excellente": 5203,
      "multipli": 5204,
      "carnes": 5205,
      "formam": 5206,
      "obscu": 5207,
      "manuscripto": 5208,
      "tremulo": 5209,
      "capitulos": 5210,
      "testemunhas": 5211,
      "creançolas": 5212,
      "hesitação": 5213,
      "estremecer": 5214,
      "atordoado": 5215,
      "Acceitei": 5216,
      "evidentemente": 5217,
      "sacerdote": 5218,
      "anecdota": 5219,
      "Amai": 5220,
      "Antonio": 5221,
      "Apesar": 5222,
      "Central": 5223,
      "Effectivamente": 5224,
      "_Cantico_": 5225,
      "agonia": 5226,
      "abomina": 5227,
      "nympha": 5228,
      "demasia": 5229,
      "debuxo": 5230,
      "esterlinas": 5231,
      "espiava": 5232,
      "mentação": 5233,
      "archanjo": 5234,
      "incredu": 5235,
      "inconsciente": 5236,
      "investidura": 5237,
      "recreios": 5238,
      "reconciliação": 5239,
      "manifesta": 5240,
      "tolerava": 5241,
      "camaro": 5242,
      "envelhec": 5243,
      "naufragio": 5244,
      "apparencia": 5245,
      "libretto": 5246,
      "parceiro": 5247,
      "partitura": 5248,
      "boceta": 5249,
      "exageração": 5250,
      "gravissimo": 5251,
      "sufficiente": 5252,
      "Massinissa": 5253,
      "interlocutor": 5254,
      "Ashaverus": 5255,
      "Novembro": 5256,
      "lençóes": 5257,
      "Excellentissima": 5258,
      "Majestade": 5259,
      ",»": 5260,
      "11": 5261,
      "Ande": 5262,
      "Acab": 5263,
      "Aquelle": 5264,
      "Apal": 5265,
      "Ahi": 5266,
      "Abaixo": 5267,
      "Aban": 5268,
      "Abri": 5269,
      "Achil": 5270,
      "Adeus": 5271,
      "Ba": 5272,
      "Ben": 5273,
      "Bat": 5274,
      "Bom": 5275,
      "Bib": 5276,
      "Ci": 5277,
      "Cant": 5278,
      "Chora": 5279,
      "Crim": 5280,
      "Dá": 5281,
      "Dos": 5282,
      "Dis": 5283,
      "Dava": 5284,
      "Dura": 5285,
      "Dante": 5286,
      "Eg": 5287,
      "Fo": 5288,
      "Fos": 5289,
      "Fer": 5290,
      "Fran": 5291,
      "Gri": 5292,
      "Histor": 5293,
      "Iria": 5294,
      "Ital": 5295,
      "Ja": 5296,
      "Jant": 5297,
      "Jur": 5298,
      "LI": 5299,
      "Li": 5300,
      "Lá": 5301,
      "Lei": 5302,
      "Luiz": 5303,
      "Mel": 5304,
      "Muito": 5305,
      "NT": 5306,
      "Nas": 5307,
      "Nesse": 5308,
      "Nós": 5309,
      "Ninguem": 5310,
      "Nero": 5311,
      "Or": 5312,
      "Obri": 5313,
      "Pre": 5314,
      "Pio": 5315,
      "Pando": 5316,
      "Pob": 5317,
      "Pela": 5318,
      "Platão": 5319,
      "Plutar": 5320,
      "Qui": 5321,
      "Ri": 5322,
      "Rus": 5323,
      "Sor": 5324,
      "Segre": 5325,
      "Senta": 5326,
      "Te": 5327,
      "Tar": 5328,
      "Tor": 5329,
      "Ten": 5330,
      "Tho": 5331,
      "Tent": 5332,
      "The": 5333,
      "Trez": 5334,
      "Terra": 5335,
      "Ther": 5336,
      "Ul": 5337,
      "Uni": 5338,
      "Vê": 5339,
      "Vos": 5340,
      "Vem": 5341,
      "Vendo": 5342,
      "Viu": 5343,
      "Vestia": 5344,
      "XVIII": 5345,
      "_t": 5346,
      "_sem": 5347,
      "_Dom": 5348,
      "_dan": 5349,
      "_Histor": 5350,
      "av": 5351,
      "ato": 5352,
      "ação": 5353,
      "avo": 5354,
      "age": 5355,
      "aze": 5356,
      "aves": 5357,
      "acima": 5358,
      "atur": 5359,
      "acabo": 5360,
      "ajoel": 5361,
      "amanheceu": 5362,
      "bera": 5363,
      "ble": 5364,
      "bec": 5365,
      "bros": 5366,
      "blas": 5367,
      "beira": 5368,
      "brio": 5369,
      "bura": 5370,
      "bestas": 5371,
      "cra": 5372,
      "cão": 5373,
      "cesse": 5374,
      "clas": 5375,
      "ccio": 5376,
      "crim": 5377,
      "cemos": 5378,
      "còr": 5379,
      "ccedeu": 5380,
      "dy": 5381,
      "dinho": 5382,
      "dòr": 5383,
      "dridão": 5384,
      "ezas": 5385,
      "epis": 5386,
      "evan": 5387,
      "fro": 5388,
      "fum": 5389,
      "flo": 5390,
      "feste": 5391,
      "fitar": 5392,
      "frias": 5393,
      "fitou": 5394,
      "gri": 5395,
      "glo": 5396,
      "gós": 5397,
      "gios": 5398,
      "galo": 5399,
      "gário": 5400,
      "gicamente": 5401,
      "ggestão": 5402,
      "hinho": 5403,
      "heiro": 5404,
      "igu": 5405,
      "iza": 5406,
      "ivas": 5407,
      "ificar": 5408,
      "irem": 5409,
      "irecer": 5410,
      "jala": 5411,
      "jarre": 5412,
      "leu": 5413,
      "lcis": 5414,
      "lusão": 5415,
      "lelas": 5416,
      "mó": 5417,
      "mma": 5418,
      "mala": 5419,
      "mias": 5420,
      "misso": 5421,
      "nco": 5422,
      "nor": 5423,
      "nan": 5424,
      "nus": 5425,
      "nias": 5426,
      "nce": 5427,
      "nze": 5428,
      "nancia": 5429,
      "odes": 5430,
      "onda": 5431,
      "oação": 5432,
      "pr": 5433,
      "pá": 5434,
      "pão": 5435,
      "ple": 5436,
      "plo": 5437,
      "pinho": 5438,
      "pris": 5439,
      "pitar": 5440,
      "pidez": 5441,
      "rá": 5442,
      "ritual": 5443,
      "stro": 5444,
      "sámos": 5445,
      "sára": 5446,
      "sciencia": 5447,
      "ssemos": 5448,
      "sário": 5449,
      "tè": 5450,
      "tte": 5451,
      "tára": 5452,
      "trim": 5453,
      "uo": 5454,
      "ude": 5455,
      "uti": 5456,
      "ulado": 5457,
      "ueta": 5458,
      "uteis": 5459,
      "velle": 5460,
      "vest": 5461,
      "vina": 5462,
      "vinho": 5463,
      "voume": 5464,
      "vós": 5465,
      "vinh": 5466,
      "vestia": 5467,
      "xe": 5468,
      "xas": 5469,
      "xima": 5470,
      "yse": 5471,
      "ymo": 5472,
      "yram": 5473,
      "ypto": 5474,
      "zar": 5475,
      "».": 5476,
      "áre": 5477,
      "áquelle": 5478,
      "ámonos": 5479,
      "ãs": 5480,
      "çalhe": 5481,
      "éa": 5482,
      "és": 5483,
      "íamos": 5484,
      "ó_": 5485,
      "ôres": 5486,
      "ús": 5487,
      "úde": 5488,
      "rara": 5489,
      "raes": 5490,
      "radi": 5491,
      "raras": 5492,
      "raros": 5493,
      "ralas": 5494,
      "ralha": 5495,
      "rapagão": 5496,
      "dea": 5497,
      "den": 5498,
      "deso": 5499,
      "dete": 5500,
      "demos": 5501,
      "deter": 5502,
      "deria": 5503,
      "decor": 5504,
      "depu": 5505,
      "deceu": 5506,
      "ossos": 5507,
      "osculo": 5508,
      "assent": 5509,
      "assom": 5510,
      "assemos": 5511,
      "esa": 5512,
      "esma": 5513,
      "esqui": 5514,
      "esgar": 5515,
      "espal": 5516,
      "esgan": 5517,
      "esbel": 5518,
      "escadas": 5519,
      "esbura": 5520,
      "queme": 5521,
      "queim": 5522,
      "quedos": 5523,
      "queres": 5524,
      "querem": 5525,
      "quencias": 5526,
      "doe": 5527,
      "doia": 5528,
      "docu": 5529,
      "doesse": 5530,
      "dotes": 5531,
      "doentes": 5532,
      "sel": 5533,
      "sente": 5534,
      "selo": 5535,
      "serei": 5536,
      "sexu": 5537,
      "sentado": 5538,
      "sentada": 5539,
      "sentados": 5540,
      "ntaria": 5541,
      "nteiro": 5542,
      "ntil": 5543,
      "ntico": 5544,
      "nteime": 5545,
      "copo": 5546,
      "cores": 5547,
      "mens": 5548,
      "meios": 5549,
      "medros": 5550,
      "arco": 5551,
      "argo": 5552,
      "armas": 5553,
      "arlhe": 5554,
      "arch": 5555,
      "ardia": 5556,
      "ardor": 5557,
      "arche": 5558,
      "arvor": 5559,
      "artis": 5560,
      "aroma": 5561,
      "inde": 5562,
      "inco": 5563,
      "incu": 5564,
      "inidade": 5565,
      "inalmente": 5566,
      "incerto": 5567,
      "inouse": 5568,
      "infl": 5569,
      "indig": 5570,
      "inuir": 5571,
      "incompa": 5572,
      "inconcilia": 5573,
      "involu": 5574,
      "inexplicaveis": 5575,
      "invest": 5576,
      "dam": 5577,
      "dala": 5578,
      "damas": 5579,
      "damos": 5580,
      "iava": 5581,
      "eru": 5582,
      "erros": 5583,
      "alas": 5584,
      "alou": 5585,
      "alum": 5586,
      "altos": 5587,
      "altern": 5588,
      "alçada": 5589,
      "alterna": 5590,
      "alpha": 5591,
      "allusão": 5592,
      "alyse": 5593,
      "recom": 5594,
      "rena": 5595,
      "reno": 5596,
      "regu": 5597,
      "reti": 5598,
      "rende": 5599,
      "repel": 5600,
      "retal": 5601,
      "repou": 5602,
      "recl": 5603,
      "renda": 5604,
      "repi": 5605,
      "releva": 5606,
      "recreio": 5607,
      "recomp": 5608,
      "repul": 5609,
      "recurso": 5610,
      "rezas": 5611,
      "revela": 5612,
      "relembrar": 5613,
      "retros": 5614,
      "reparou": 5615,
      "reconhecer": 5616,
      "relê": 5617,
      "rendas": 5618,
      "reconcili": 5619,
      "retirouse": 5620,
      "redea": 5621,
      "issem": 5622,
      "isbaixo": 5623,
      "ouça": 5624,
      "ouço": 5625,
      "ouvida": 5626,
      "maz": 5627,
      "mada": 5628,
      "mata": 5629,
      "maio": 5630,
      "matava": 5631,
      "mataria": 5632,
      "machu": 5633,
      "materna": 5634,
      "maduro": 5635,
      "matalos": 5636,
      "matrim": 5637,
      "maxima": 5638,
      "empa": 5639,
      "empres": 5640,
      "empalli": 5641,
      "embara": 5642,
      "orch": 5643,
      "orph": 5644,
      "ortho": 5645,
      "tai": 5646,
      "tao": 5647,
      "tame": 5648,
      "taram": 5649,
      "tamento": 5650,
      "tantes": 5651,
      "tandose": 5652,
      "tamanha": 5653,
      "toa": 5654,
      "toca": 5655,
      "tolh": 5656,
      "tonto": 5657,
      "tonta": 5658,
      "toquei": 5659,
      "tocado": 5660,
      "tocando": 5661,
      "tonia": 5662,
      "tomando": 5663,
      "painha": 5664,
      "pate": 5665,
      "pater": 5666,
      "patam": 5667,
      "pazes": 5668,
      "pagem": 5669,
      "pagou": 5670,
      "pausa": 5671,
      "patern": 5672,
      "paquete": 5673,
      "paiza": 5674,
      "elos": 5675,
      "elha": 5676,
      "havam": 5677,
      "havido": 5678,
      "havemos": 5679,
      "hatico": 5680,
      "cae": 5681,
      "caus": 5682,
      "capri": 5683,
      "cações": 5684,
      "cavar": 5685,
      "caixão": 5686,
      "catalo": 5687,
      "catoria": 5688,
      "cairam": 5689,
      "vadia": 5690,
      "vagos": 5691,
      "comb": 5692,
      "comi": 5693,
      "comia": 5694,
      "compe": 5695,
      "compli": 5696,
      "comtanto": 5697,
      "comment": 5698,
      "compensa": 5699,
      "combat": 5700,
      "combor": 5701,
      "composição": 5702,
      "commanda": 5703,
      "commentar": 5704,
      "complica": 5705,
      "comprei": 5706,
      "compostura": 5707,
      "rora": 5708,
      "roido": 5709,
      "rolava": 5710,
      "roidos": 5711,
      "robusto": 5712,
      "roxas": 5713,
      "ena": 5714,
      "enc": 5715,
      "enes": 5716,
      "ener": 5717,
      "enca": 5718,
      "ensa": 5719,
      "engo": 5720,
      "enço": 5721,
      "enven": 5722,
      "enxo": 5723,
      "encanto": 5724,
      "endire": 5725,
      "enadas": 5726,
      "lhinha": 5727,
      "lhões": 5728,
      "lharia": 5729,
      "umph": 5730,
      "sado": 5731,
      "santo": 5732,
      "sabem": 5733,
      "sabo": 5734,
      "sagra": 5735,
      "saido": 5736,
      "savamos": 5737,
      "impro": 5738,
      "imidade": 5739,
      "immedia": 5740,
      "improprias": 5741,
      "impru": 5742,
      "immensa": 5743,
      "annun": 5744,
      "analo": 5745,
      "andado": 5746,
      "anon": 5747,
      "andasse": 5748,
      "andassem": 5749,
      "analyse": 5750,
      "erapeu": 5751,
      "dita": 5752,
      "ditas": 5753,
      "divin": 5754,
      "digase": 5755,
      "divisão": 5756,
      "diccio": 5757,
      "nados": 5758,
      "naquellas": 5759,
      "eux": 5760,
      "lada": 5761,
      "lapis": 5762,
      "latino": 5763,
      "notou": 5764,
      "novidade": 5765,
      "novelle": 5766,
      "ntemente": 5767,
      "poes": 5768,
      "pont": 5769,
      "pole": 5770,
      "pondo": 5771,
      "podridão": 5772,
      "ridos": 5773,
      "riveis": 5774,
      "gues": 5775,
      "leia": 5776,
      "leal": 5777,
      "lente": 5778,
      "lego": 5779,
      "letas": 5780,
      "lepida": 5781,
      "lepido": 5782,
      "letras": 5783,
      "pararam": 5784,
      "vita": 5785,
      "viera": 5786,
      "vivi": 5787,
      "vilhe": 5788,
      "vive": 5789,
      "viga": 5790,
      "viram": 5791,
      "vivas": 5792,
      "viços": 5793,
      "viemos": 5794,
      "vicios": 5795,
      "vidro": 5796,
      "vigário": 5797,
      "sof": 5798,
      "soci": 5799,
      "somente": 5800,
      "solem": 5801,
      "sonha": 5802,
      "sopra": 5803,
      "sobras": 5804,
      "solava": 5805,
      "sobres": 5806,
      "sobran": 5807,
      "tiro": 5808,
      "tiria": 5809,
      "tirei": 5810,
      "tivas": 5811,
      "tivemos": 5812,
      "honora": 5813,
      "gole": 5814,
      "goza": 5815,
      "usões": 5816,
      "apparec": 5817,
      "apressa": 5818,
      "aphor": 5819,
      "apparecer": 5820,
      "approxima": 5821,
      "massem": 5822,
      "porto": 5823,
      "porções": 5824,
      "portanto": 5825,
      "monte": 5826,
      "mole": 5827,
      "mover": 5828,
      "moce": 5829,
      "moram": 5830,
      "moços": 5831,
      "momentos": 5832,
      "montan": 5833,
      "entos": 5834,
      "entado": 5835,
      "entrasse": 5836,
      "dosos": 5837,
      "ciar": 5838,
      "cinta": 5839,
      "citamente": 5840,
      "fique": 5841,
      "fieis": 5842,
      "fixar": 5843,
      "filhinha": 5844,
      "trada": 5845,
      "traria": 5846,
      "travesse": 5847,
      "tratado": 5848,
      "tratamento": 5849,
      "desci": 5850,
      "desvia": 5851,
      "desceu": 5852,
      "desfor": 5853,
      "desfec": 5854,
      "desgosto": 5855,
      "desusa": 5856,
      "destin": 5857,
      "desfazendo": 5858,
      "desculpa": 5859,
      "desmentir": 5860,
      "desig": 5861,
      "descuido": 5862,
      "destruir": 5863,
      "desunião": 5864,
      "desleal": 5865,
      "liu": 5866,
      "lias": 5867,
      "lião": 5868,
      "liqui": 5869,
      "logra": 5870,
      "resi": 5871,
      "resul": 5872,
      "restitui": 5873,
      "resenti": 5874,
      "pefa": 5875,
      "pedisse": 5876,
      "peças": 5877,
      "pegado": 5878,
      "pedarias": 5879,
      "tuosos": 5880,
      "conc": 5881,
      "conven": 5882,
      "condem": 5883,
      "condição": 5884,
      "conforme": 5885,
      "vers": 5886,
      "veren": 5887,
      "versa": 5888,
      "vernos": 5889,
      "vermes": 5890,
      "versi": 5891,
      "vermelh": 5892,
      "verni": 5893,
      "veremos": 5894,
      "verificar": 5895,
      "casal": 5896,
      "casca": 5897,
      "casando": 5898,
      "casmurro": 5899,
      "casuar": 5900,
      "castello": 5901,
      "uira": 5902,
      "chris": 5903,
      "chins": 5904,
      "cheira": 5905,
      "cheiro": 5906,
      "chico": 5907,
      "chalo": 5908,
      "chrono": 5909,
      "dispo": 5910,
      "disci": 5911,
      "discu": 5912,
      "dissol": 5913,
      "dispoz": 5914,
      "dissima": 5915,
      "distribu": 5916,
      "discursos": 5917,
      "Capri": 5918,
      "Capito": 5919,
      "perfei": 5920,
      "perdese": 5921,
      "perdendo": 5922,
      "perderam": 5923,
      "persis": 5924,
      "perfis": 5925,
      "perola": 5926,
      "perversa": 5927,
      "aonde": 5928,
      "curia": 5929,
      "cutello": 5930,
      "quie": 5931,
      "quiza": 5932,
      "quieta": 5933,
      "andolhe": 5934,
      "produz": 5935,
      "promett": 5936,
      "profis": 5937,
      "propunha": 5938,
      "mostrei": 5939,
      "gara": 5940,
      "gamente": 5941,
      "gações": 5942,
      "irse": 5943,
      "irmãos": 5944,
      "iriamos": 5945,
      "dialogo": 5946,
      "serra": 5947,
      "servo": 5948,
      "sermos": 5949,
      "ecesse": 5950,
      "simos": 5951,
      "partia": 5952,
      "rasgos": 5953,
      "terá": 5954,
      "terem": 5955,
      "ternos": 5956,
      "terça": 5957,
      "terriveis": 5958,
      "botar": 5959,
      "bonda": 5960,
      "bone": 5961,
      "atar": 5962,
      "attra": 5963,
      "attitu": 5964,
      "atinava": 5965,
      "attribu": 5966,
      "preg": 5967,
      "preta": 5968,
      "premi": 5969,
      "premissa": 5970,
      "preench": 5971,
      "pregui": 5972,
      "tará": 5973,
      "tardia": 5974,
      "tardou": 5975,
      "folha": 5976,
      "exp": 5977,
      "exprime": 5978,
      "extre": 5979,
      "expul": 5980,
      "expira": 5981,
      "expan": 5982,
      "contoume": 5983,
      "contesto": 5984,
      "contigu": 5985,
      "estabel": 5986,
      "fação": 5987,
      "faces": 5988,
      "fadiga": 5989,
      "gral": 5990,
      "grades": 5991,
      "grace": 5992,
      "gradua": 5993,
      "gracios": 5994,
      "Escre": 5995,
      "Estive": 5996,
      "prido": 5997,
      "sivas": 5998,
      "sidades": 5999,
      "bradar": 6000,
      "bradava": 6001,
      "bradou": 6002,
      "bradando": 6003,
      "temia": 6004,
      "ciano": 6005,
      "cedia": 6006,
      "cedendo": 6007,
      "velas": 6008,
      "velmente": 6009,
      "vellei": 6010,
      "velhi": 6011,
      "unha": 6012,
      "ungido": 6013,
      "estim": 6014,
      "estri": 6015,
      "estás": 6016,
      "estrei": 6017,
      "estré": 6018,
      "olhámos": 6019,
      "caber": 6020,
      "cabisbaixo": 6021,
      "actor": 6022,
      "acóde": 6023,
      "dizelas": 6024,
      "casaes": 6025,
      "casaca": 6026,
      "dissenos": 6027,
      "disserem": 6028,
      "mudo": 6029,
      "mulei": 6030,
      "intes": 6031,
      "inteiro": 6032,
      "intimo": 6033,
      "intuito": 6034,
      "suggestão": 6035,
      "carse": 6036,
      "carros": 6037,
      "cartão": 6038,
      "carinhos": 6039,
      "cartorio": 6040,
      "duo": 6041,
      "duras": 6042,
      "durar": 6043,
      "duração": 6044,
      "dulcis": 6045,
      "falle": 6046,
      "falam": 6047,
      "faltam": 6048,
      "faltou": 6049,
      "falámos": 6050,
      "falára": 6051,
      "falemos": 6052,
      "faltando": 6053,
      "faltasse": 6054,
      "nhô": 6055,
      "nhos": 6056,
      "creado": 6057,
      "crentes": 6058,
      "posth": 6059,
      "positi": 6060,
      "possui": 6061,
      "essence": 6062,
      "corres": 6063,
      "cordia": 6064,
      "cortina": 6065,
      "delei": 6066,
      "delaria": 6067,
      "passas": 6068,
      "passasse": 6069,
      "passivo": 6070,
      "torre": 6071,
      "torno": 6072,
      "torios": 6073,
      "tambor": 6074,
      "ramlhe": 6075,
      "darse": 6076,
      "darás": 6077,
      "couse": 6078,
      "certos": 6079,
      "certas": 6080,
      "cerrava": 6081,
      "cerradas": 6082,
      "puer": 6083,
      "puras": 6084,
      "pudessem": 6085,
      "pendia": 6086,
      "pendamos": 6087,
      "morou": 6088,
      "mordeu": 6089,
      "mordendo": 6090,
      "eramse": 6091,
      "Coitado": 6092,
      "amigu": 6093,
      "goso": 6094,
      "gostar": 6095,
      "gostaria": 6096,
      "gostasse": 6097,
      "mineira": 6098,
      "ntamento": 6099,
      "nadamente": 6100,
      "valsa": 6101,
      "valias": 6102,
      "chamado": 6103,
      "chamassem": 6104,
      "lasse": 6105,
      "abre": 6106,
      "abor": 6107,
      "abro": 6108,
      "abrindo": 6109,
      "abalo": 6110,
      "abenço": 6111,
      "fechalo": 6112,
      "feiti": 6113,
      "feiço": 6114,
      "feixe": 6115,
      "vissem": 6116,
      "visões": 6117,
      "presa": 6118,
      "presi": 6119,
      "preso": 6120,
      "pressas": 6121,
      "lhado": 6122,
      "pousou": 6123,
      "miseri": 6124,
      "iamme": 6125,
      "dormis": 6126,
      "dormiu": 6127,
      "marem": 6128,
      "maridos": 6129,
      "marmore": 6130,
      "nasci": 6131,
      "nascidos": 6132,
      "rouas": 6133,
      "rouxar": 6134,
      "ouvila": 6135,
      "ouviume": 6136,
      "ringir": 6137,
      "Pae": 6138,
      "Paran": 6139,
      "bado": 6140,
      "bati": 6141,
      "bate": 6142,
      "clero": 6143,
      "clineime": 6144,
      "jado": 6145,
      "java": 6146,
      "jazia": 6147,
      "volto": 6148,
      "voltava": 6149,
      "voltámos": 6150,
      "voltavamos": 6151,
      "voltára": 6152,
      "peso": 6153,
      "pesquiza": 6154,
      "pergunte": 6155,
      "jogava": 6156,
      "deixala": 6157,
      "deixaria": 6158,
      "deixemos": 6159,
      "acaba": 6160,
      "acabam": 6161,
      "acabaram": 6162,
      "acabassem": 6163,
      "breves": 6164,
      "fossemos": 6165,
      "reiro": 6166,
      "vocês": 6167,
      "ache": 6168,
      "achára": 6169,
      "pedilo": 6170,
      "pediria": 6171,
      "jube": 6172,
      "juvent": 6173,
      "fezlhe": 6174,
      "seguro": 6175,
      "segundos": 6176,
      "seguintes": 6177,
      "interina": 6178,
      "interveiu": 6179,
      "interino": 6180,
      "interinidade": 6181,
      "formos": 6182,
      "formal": 6183,
      "obras": 6184,
      "obter": 6185,
      "risquei": 6186,
      "riscava": 6187,
      "riscando": 6188,
      "tenção": 6189,
      "tenhas": 6190,
      "feria": 6191,
      "ferro": 6192,
      "deulhe": 6193,
      "esperado": 6194,
      "tavame": 6195,
      "podiamos": 6196,
      "ceição": 6197,
      "ceiras": 6198,
      "fino": 6199,
      "finos": 6200,
      "fineza": 6201,
      "finezas": 6202,
      "nea": 6203,
      "mentiros": 6204,
      "lembrado": 6205,
      "lembrase": 6206,
      "lembravame": 6207,
      "lembravamme": 6208,
      "furia": 6209,
      "furios": 6210,
      "touse": 6211,
      "toulhe": 6212,
      "derra": 6213,
      "derreou": 6214,
      "estidade": 6215,
      "estimava": 6216,
      "estimei": 6217,
      "esticadas": 6218,
      "estirado": 6219,
      "estivessem": 6220,
      "senhoras": 6221,
      "pique": 6222,
      "piar": 6223,
      "piou": 6224,
      "piro": 6225,
      "pilher": 6226,
      "pitan": 6227,
      "confun": 6228,
      "confusos": 6229,
      "çassem": 6230,
      "quadra": 6231,
      "quadros": 6232,
      "ciso": 6233,
      "cismo": 6234,
      "zessemos": 6235,
      "insistencia": 6236,
      "instru": 6237,
      "inspiração": 6238,
      "portador": 6239,
      "chegue": 6240,
      "chegada": 6241,
      "culpe": 6242,
      "adores": 6243,
      "adoeciam": 6244,
      "Seja": 6245,
      "afas": 6246,
      "afran": 6247,
      "affeições": 6248,
      "affag": 6249,
      "affeiço": 6250,
      "afrouxar": 6251,
      "calando": 6252,
      "calasse": 6253,
      "calcular": 6254,
      "calculos": 6255,
      "calçava": 6256,
      "calçada": 6257,
      "luta": 6258,
      "lutam": 6259,
      "luzes": 6260,
      "mandasse": 6261,
      "explicava": 6262,
      "explicam": 6263,
      "passam": 6264,
      "passados": 6265,
      "passavamos": 6266,
      "passagens": 6267,
      "Dez": 6268,
      "Devia": 6269,
      "Embar": 6270,
      "suspiro": 6271,
      "mendigo": 6272,
      "menini": 6273,
      "meninos": 6274,
      "Costa": 6275,
      "trez": 6276,
      "treme": 6277,
      "tremula": 6278,
      "trechos": 6279,
      "respon": 6280,
      "respondia": 6281,
      "captiva": 6282,
      "entregou": 6283,
      "gasta": 6284,
      "gastar": 6285,
      "gastaria": 6286,
      "gastámos": 6287,
      "Entrou": 6288,
      "Novamente": 6289,
      "palmas": 6290,
      "palmo": 6291,
      "palpitar": 6292,
      "inutil": 6293,
      "ficado": 6294,
      "ficando": 6295,
      "crime": 6296,
      "pharma": 6297,
      "precisos": 6298,
      "falavamos": 6299,
      "suadir": 6300,
      "teime": 6301,
      "teimarem": 6302,
      "vende": 6303,
      "vendia": 6304,
      "vender": 6305,
      "veneração": 6306,
      "vencivel": 6307,
      "deilhe": 6308,
      "deiras": 6309,
      "sorios": 6310,
      "sortes": 6311,
      "troça": 6312,
      "tropel": 6313,
      "trocara": 6314,
      "tropol": 6315,
      "tronco": 6316,
      "esquecia": 6317,
      "esquecera": 6318,
      "esquecendo": 6319,
      "esquecimentos": 6320,
      "esquecidas": 6321,
      "estomago": 6322,
      "recebem": 6323,
      "receiava": 6324,
      "morando": 6325,
      "moravam": 6326,
      "grego": 6327,
      "leite": 6328,
      "pequenas": 6329,
      "bastar": 6330,
      "bastou": 6331,
      "itada": 6332,
      "itando": 6333,
      "começ": 6334,
      "comendo": 6335,
      "começa": 6336,
      "comece": 6337,
      "começado": 6338,
      "Vocês": 6339,
      "buscalo": 6340,
      "opposto": 6341,
      "opportu": 6342,
      "optimo": 6343,
      "nhamos": 6344,
      "tese": 6345,
      "qualidade": 6346,
      "Ouvia": 6347,
      "Ouvimos": 6348,
      "agita": 6349,
      "aggrava": 6350,
      "beto": 6351,
      "curtido": 6352,
      "principaes": 6353,
      "Sandia": 6354,
      "cuidou": 6355,
      "rimos": 6356,
      "estará": 6357,
      "escrevo": 6358,
      "escrevia": 6359,
      "escrevesse": 6360,
      "escreveu": 6361,
      "cavalheiro": 6362,
      "pessoaes": 6363,
      "aula": 6364,
      "fuime": 6365,
      "allivio": 6366,
      "achando": 6367,
      "pensado": 6368,
      "pensamentos": 6369,
      "voltame": 6370,
      "voltada": 6371,
      "voltavam": 6372,
      "senhores": 6373,
      "ataque": 6374,
      "atado": 6375,
      "ataúde": 6376,
      "levando": 6377,
      "levantava": 6378,
      "levantei": 6379,
      "somnos": 6380,
      "sommar": 6381,
      "sommando": 6382,
      "correio": 6383,
      "respondendo": 6384,
      ".»--«": 6385,
      "entramos": 6386,
      "pareça": 6387,
      "parecida": 6388,
      "instantane": 6389,
      "orador": 6390,
      "oratorio": 6391,
      "oratorios": 6392,
      "continuam": 6393,
      "continuando": 6394,
      "continuasse": 6395,
      "continuámos": 6396,
      "genaria": 6397,
      "ilà": 6398,
      "prati": 6399,
      "praça": 6400,
      "pranto": 6401,
      "partida": 6402,
      "minucias": 6403,
      "sentime": 6404,
      "sentidos": 6405,
      "houver": 6406,
      "houvessem": 6407,
      "lenha": 6408,
      "varme": 6409,
      "variar": 6410,
      "desejar": 6411,
      "acheilhe": 6412,
      "entrarão": 6413,
      "Mana": 6414,
      "Mano": 6415,
      "Mande": 6416,
      "Mandei": 6417,
      "Mandase": 6418,
      "gano": 6419,
      "ganho": 6420,
      "gança": 6421,
      "ganhar": 6422,
      "ganhase": 6423,
      "quartel": 6424,
      "quartafeira": 6425,
      "quaresma": 6426,
      "solta": 6427,
      "soldado": 6428,
      "entendia": 6429,
      "entenderam": 6430,
      "espairecer": 6431,
      "ladores": 6432,
      "conhece": 6433,
      "conheceu": 6434,
      "conhecesse": 6435,
      "conheceram": 6436,
      "conheciamos": 6437,
      "confessasse": 6438,
      "beijos": 6439,
      "beijou": 6440,
      "beijala": 6441,
      "pedirme": 6442,
      "claras": 6443,
      "chorasse": 6444,
      "crescidos": 6445,
      "ficará": 6446,
      "costumava": 6447,
      "repetias": 6448,
      "repetiria": 6449,
      "salo": 6450,
      "therapeu": 6451,
      "dandome": 6452,
      "dandolhe": 6453,
      "papelinho": 6454,
      "apertado": 6455,
      "apertada": 6456,
      "Vivo": 6457,
      "Vieram": 6458,
      "Vivemos": 6459,
      "funda": 6460,
      "fundidas": 6461,
      "justo": 6462,
      "justas": 6463,
      "lleza": 6464,
      "nario": 6465,
      "narios": 6466,
      "escuta": 6467,
      "escute": 6468,
      "escutar": 6469,
      "escuros": 6470,
      "orden": 6471,
      "tadores": 6472,
      "conversar": 6473,
      "creanca": 6474,
      "creancas": 6475,
      "Compre": 6476,
      "Commigo": 6477,
      "simplesmente": 6478,
      "Petropol": 6479,
      "batal": 6480,
      "batinas": 6481,
      "occorri": 6482,
      "estudando": 6483,
      "estupido": 6484,
      "estupefa": 6485,
      "consum": 6486,
      "consti": 6487,
      "constru": 6488,
      "construir": 6489,
      "deviamos": 6490,
      "emphatico": 6491,
      "amorosas": 6492,
      "passaro": 6493,
      "Pereira": 6494,
      "Perdese": 6495,
      "Repe": 6496,
      "Reveren": 6497,
      "Tinham": 6498,
      "Tinhamos": 6499,
      "anteci": 6500,
      "janta": 6501,
      "comprou": 6502,
      "guezes": 6503,
      "viuvo": 6504,
      "substa": 6505,
      "interrogar": 6506,
      "interrompesse": 6507,
      "Fique": 6508,
      "Filho": 6509,
      "Ficámos": 6510,
      "hospedarias": 6511,
      "miralo": 6512,
      "separados": 6513,
      "inassem": 6514,
      "contarme": 6515,
      "contarei": 6516,
      "contarlhe": 6517,
      "imaginar": 6518,
      "agradar": 6519,
      "flôres": 6520,
      "gestes": 6521,
      "pirueta": 6522,
      "triumph": 6523,
      "vendome": 6524,
      "tiveme": 6525,
      "dizendome": 6526,
      "dizendolhe": 6527,
      "tornando": 6528,
      "tornaria": 6529,
      "fugi": 6530,
      "integral": 6531,
      "urbios": 6532,
      "escolas": 6533,
      "contentou": 6534,
      "podeis": 6535,
      "chegam": 6536,
      "chegasse": 6537,
      "supponho": 6538,
      "negociante": 6539,
      "conversava": 6540,
      "conversavam": 6541,
      "dezas": 6542,
      "dezeno": 6543,
      "dezoito": 6544,
      "escriptos": 6545,
      "escriptura": 6546,
      "mostrava": 6547,
      "mostrador": 6548,
      "mostrasse": 6549,
      "Estados": 6550,
      "signi": 6551,
      "Conser": 6552,
      "Concor": 6553,
      "Concl": 6554,
      "Confes": 6555,
      "Conceição": 6556,
      "risonha": 6557,
      "necessário": 6558,
      "Tom": 6559,
      "domingos": 6560,
      "andaria": 6561,
      "....?": 6562,
      "....»": 6563,
      "enterrado": 6564,
      "faziame": 6565,
      "obrigou": 6566,
      "obrigava": 6567,
      "adeant": 6568,
      "vestidos": 6569,
      "arrenegar": 6570,
      "vagaroso": 6571,
      "vagarosa": 6572,
      "aposent": 6573,
      "consequencias": 6574,
      "favores": 6575,
      "apagar": 6576,
      "apanha": 6577,
      "apaixo": 6578,
      "apanhado": 6579,
      "apanhados": 6580,
      "brincos": 6581,
      "brinquedos": 6582,
      "digna": 6583,
      "dignas": 6584,
      "pentear": 6585,
      "attendia": 6586,
      "attendeu": 6587,
      "attender": 6588,
      "recebera": 6589,
      "jantares": 6590,
      "bens": 6591,
      "bengala": 6592,
      "deralhe": 6593,
      "caminhos": 6594,
      "guarde": 6595,
      "guardalo": 6596,
      "guardada": 6597,
      "viviam": 6598,
      "descobri": 6599,
      "descoberto": 6600,
      "amargo": 6601,
      "amarella": 6602,
      "amarello": 6603,
      "silencios": 6604,
      "acceitei": 6605,
      "acceitando": 6606,
      "surdos": 6607,
      "ouvirme": 6608,
      "ouvirlhe": 6609,
      "differentes": 6610,
      "Digo": 6611,
      "Divina": 6612,
      "america": 6613,
      "amam": 6614,
      "amado": 6615,
      "amantissima": 6616,
      "amantissimo": 6617,
      "apoio": 6618,
      "apontou": 6619,
      "buquer": 6620,
      "bellião": 6621,
      "eterno": 6622,
      "eternos": 6623,
      "eternas": 6624,
      "jard": 6625,
      "pinta": 6626,
      "pintar": 6627,
      "pintou": 6628,
      "pinturas": 6629,
      "embargo": 6630,
      "pagasse": 6631,
      "sonhei": 6632,
      "sonhára": 6633,
      "apprenderia": 6634,
      "dissimulado": 6635,
      "curiosos": 6636,
      "curiosidade": 6637,
      "exemplos": 6638,
      "intensos": 6639,
      "aborrecimento": 6640,
      "aborrecivel": 6641,
      "mettime": 6642,
      "mettiase": 6643,
      "linguagem": 6644,
      "borda": 6645,
      "caladas": 6646,
      "franqueza": 6647,
      "musico": 6648,
      "musculos": 6649,
      "summa": 6650,
      "vindouras": 6651,
      "defunctos": 6652,
      "erguer": 6653,
      "logares": 6654,
      "proximos": 6655,
      "proximas": 6656,
      "amizades": 6657,
      "dormiam": 6658,
      "juramentos": 6659,
      "cumpriu": 6660,
      "cumpridas": 6661,
      "182": 6662,
      "187": 6663,
      "adiar": 6664,
      "adivinh": 6665,
      "agulha": 6666,
      "aguenta": 6667,
      "brome": 6668,
      "largos": 6669,
      "cochi": 6670,
      "cocheira": 6671,
      "cochilar": 6672,
      "metaphysica": 6673,
      "relata": 6674,
      "relativamente": 6675,
      "recuou": 6676,
      "empregou": 6677,
      "empregue": 6678,
      "iticos": 6679,
      "pediame": 6680,
      "pedialhe": 6681,
      "teveme": 6682,
      "conhecidas": 6683,
      "ultimamente": 6684,
      "reflectiu": 6685,
      "apostolo": 6686,
      "Ellas": 6687,
      "Prometti": 6688,
      "chorar": 6689,
      "chorava": 6690,
      "choravam": 6691,
      "fariamos": 6692,
      "sincer": 6693,
      "demolis": 6694,
      "cançadas": 6695,
      "andam": 6696,
      "confiou": 6697,
      "consultou": 6698,
      "consultei": 6699,
      "promptamente": 6700,
      "extranhos": 6701,
      "exclamava": 6702,
      "exclamei": 6703,
      "Querido": 6704,
      "ecclesiastico": 6705,
      "ecclesiasticos": 6706,
      "Desculpe": 6707,
      "Invent": 6708,
      "Inclineime": 6709,
      "banca": 6710,
      "banalidade": 6711,
      "gelho": 6712,
      "vinculo": 6713,
      "vingasse": 6714,
      "vingança": 6715,
      "esquerdo": 6716,
      "campainha": 6717,
      "politicos": 6718,
      "voltarme": 6719,
      "voltarete": 6720,
      "deixeime": 6721,
      "fechava": 6722,
      "fechadas": 6723,
      "fechavame": 6724,
      "Jurei": 6725,
      "Suissa": 6726,
      "Succedeu": 6727,
      "crises": 6728,
      "mystica": 6729,
      "onio": 6730,
      "tentar": 6731,
      "demorado": 6732,
      "demorada": 6733,
      "demoradamente": 6734,
      "panegyrico": 6735,
      "pancadas": 6736,
      "comparavel": 6737,
      "encheram": 6738,
      "riase": 6739,
      "tirada": 6740,
      "tirando": 6741,
      "tiraram": 6742,
      "pedacinho": 6743,
      "turvação": 6744,
      "graphia": 6745,
      "estreitas": 6746,
      "falta_": 6747,
      "passeio": 6748,
      "passeadores": 6749,
      "tornaram": 6750,
      "suspeitar": 6751,
      "suspeitas": 6752,
      "pallido": 6753,
      "Albuquer": 6754,
      "Andando": 6755,
      "atrapalha": 6756,
      "atravessa": 6757,
      "grossas": 6758,
      "horrivel": 6759,
      "testamento": 6760,
      "devagarinho": 6761,
      "colcha": 6762,
      "collar": 6763,
      "colini": 6764,
      "inclinouse": 6765,
      "infinita": 6766,
      "alugadas": 6767,
      "receioso": 6768,
      "importancia": 6769,
      "namorado": 6770,
      "namorava": 6771,
      "honesto": 6772,
      "honestidade": 6773,
      "uirme": 6774,
      "servilo": 6775,
      "branco": 6776,
      "cialmente": 6777,
      "accordei": 6778,
      "accordado": 6779,
      "intimas": 6780,
      "successos": 6781,
      "fazendome": 6782,
      "chamavame": 6783,
      "culpada": 6784,
      "fizeramse": 6785,
      "?»--«": 6786,
      "LXVII": 6787,
      "_Panegyrico_": 6788,
      "pôrme": 6789,
      "vêm": 6790,
      "vês": 6791,
      "rapada": 6792,
      "esconder": 6793,
      "escondido": 6794,
      "escondidas": 6795,
      "arranjar": 6796,
      "commovido": 6797,
      "roçavam": 6798,
      "despega": 6799,
      "confirmava": 6800,
      "confirmaria": 6801,
      "distinc": 6802,
      "distincta": 6803,
      "contavam": 6804,
      "sósinhos": 6805,
      "puxar": 6806,
      "puxou": 6807,
      "puxala": 6808,
      "gostavas": 6809,
      "venturados": 6810,
      "claramente": 6811,
      "completa": 6812,
      "complemento": 6813,
      "obrigações": 6814,
      "trouxesse": 6815,
      "trouxeram": 6816,
      "replicoume": 6817,
      "lisa": 6818,
      "lison": 6819,
      "limes": 6820,
      "limpas": 6821,
      "inquieta": 6822,
      "reproducção": 6823,
      "padecia": 6824,
      "padecido": 6825,
      "pagaria": 6826,
      "ensinassem": 6827,
      "encobrindo": 6828,
      "enxugava": 6829,
      "diversões": 6830,
      "consolas": 6831,
      "perdoe": 6832,
      "atalhei": 6833,
      "gravemente": 6834,
      "puzme": 6835,
      "metterse": 6836,
      "chegara": 6837,
      "chegaram": 6838,
      "chegavam": 6839,
      "affirmava": 6840,
      "affirmação": 6841,
      "lençol": 6842,
      "desappare": 6843,
      "Aquillo": 6844,
      "Caso": 6845,
      "Coroação": 6846,
      "Sentia": 6847,
      "azues": 6848,
      "bellezas": 6849,
      "lindos": 6850,
      "linhas": 6851,
      "lindissima": 6852,
      "máu": 6853,
      "punh": 6854,
      "siso": 6855,
      "zangava": 6856,
      "devoção": 6857,
      "devotas": 6858,
      "desengano": 6859,
      "assustado": 6860,
      "assustada": 6861,
      "assustase": 6862,
      "iniciou": 6863,
      "remedios": 6864,
      "satisfazer": 6865,
      "satisfação": 6866,
      "pegueilhe": 6867,
      "disfarça": 6868,
      "disfarce": 6869,
      "atrevi": 6870,
      "atrevia": 6871,
      "execução": 6872,
      "executar": 6873,
      "executada": 6874,
      "gravador": 6875,
      "estendendo": 6876,
      "fazemse": 6877,
      "chamarlhe": 6878,
      "aberta": 6879,
      "chegaremos": 6880,
      "elogiar": 6881,
      "elogiou": 6882,
      "agradecer": 6883,
      "agradeço": 6884,
      "afflicto": 6885,
      "emendados": 6886,
      "adivinhado": 6887,
      "escravo": 6888,
      "escravas": 6889,
      "**--": 6890,
      "Passei": 6891,
      "Sabbado": 6892,
      "acompanhalo": 6893,
      "criado": 6894,
      "humano": 6895,
      "placida": 6896,
      "proso": 6897,
      "tentação": 6898,
      "assobra": 6899,
      "assobia": 6900,
      "allopatha": 6901,
      "alheia": 6902,
      "alcanço": 6903,
      "alcancei": 6904,
      "alterar": 6905,
      "rezar": 6906,
      "rezei": 6907,
      "retorquia": 6908,
      "recusar": 6909,
      "recusaria": 6910,
      "rejeitar": 6911,
      "rejeitou": 6912,
      "rejeitei": 6913,
      "recolhime": 6914,
      "peores": 6915,
      "vexado": 6916,
      "vexada": 6917,
      "chupado": 6918,
      "possue": 6919,
      "purgatorio": 6920,
      "abrira": 6921,
      "miudo": 6922,
      "miudos": 6923,
      "miudas": 6924,
      "affecto": 6925,
      "affectação": 6926,
      "explicouse": 6927,
      "recebidas": 6928,
      "longamente": 6929,
      "interrompi": 6930,
      "Fizme": 6931,
      "agradecimento": 6932,
      "agradecimentos": 6933,
      "arrependime": 6934,
      "commerciante": 6935,
      "resolver": 6936,
      "resolvido": 6937,
      "Deixe": 6938,
      "obedecesse": 6939,
      "inclinavase": 6940,
      "acostumando": 6941,
      "Fezse": 6942,
      "Taes": 6943,
      "agarrar": 6944,
      "agarreime": 6945,
      "ajudar": 6946,
      "apanhou": 6947,
      "acompanhado": 6948,
      "economia": 6949,
      "gerado": 6950,
      "ironia": 6951,
      "nuca": 6952,
      "pôz": 6953,
      "quantia": 6954,
      "querida": 6955,
      "dobrado": 6956,
      "dobrava": 6957,
      "serenas": 6958,
      "incidentes": 6959,
      "revelou": 6960,
      "reveloume": 6961,
      "tomam": 6962,
      "habitos": 6963,
      "caía": 6964,
      "compridas": 6965,
      "envolvia": 6966,
      "animala": 6967,
      "notaram": 6968,
      "levemente": 6969,
      "socegada": 6970,
      "fitavam": 6971,
      "fitavamse": 6972,
      "desvaira": 6973,
      "despedirme": 6974,
      "distraí": 6975,
      "carola": 6976,
      "Conhecia": 6977,
      "bailes": 6978,
      "verdadeiramente": 6979,
      "concluo": 6980,
      "espectador": 6981,
      "Pediu": 6982,
      "Pediume": 6983,
      "interrogação": 6984,
      "interrogativamente": 6985,
      "fugirme": 6986,
      "escolhi": 6987,
      "escolhia": 6988,
      "supplicas": 6989,
      "supplices": 6990,
      "trabalhava": 6991,
      "trabalhador": 6992,
      "numerosa": 6993,
      "numerosas": 6994,
      "murmurando": 6995,
      "1857": 6996,
      "1858": 6997,
      "1859": 6998,
      "universal": 6999,
      "universidades": 7000,
      "reproduziam": 7001,
      "Camões": 7002,
      "Lopes": 7003,
      "Sai": 7004,
      "Seria": 7005,
      "Souza": 7006,
      "Venceu": 7007,
      "aboto": 7008,
      "ajuste": 7009,
      "gordo": 7010,
      "dedicatoria": 7011,
      "espelhinho": 7012,
      "contolhe": 7013,
      "reparava": 7014,
      "reparação": 7015,
      "remoto": 7016,
      "cautela": 7017,
      "vagamente": 7018,
      "comprehensão": 7019,
      "encontrei": 7020,
      "imitações": 7021,
      "animação": 7022,
      "moderação": 7023,
      "desviou": 7024,
      "desviei": 7025,
      "descanço": 7026,
      "descançar": 7027,
      "desconfiado": 7028,
      "desconfiança": 7029,
      "logias": 7030,
      "logica": 7031,
      "proferi": 7032,
      "proferir": 7033,
      "mostroume": 7034,
      "exterior": 7035,
      "cederlhe": 7036,
      "duvidoso": 7037,
      "passeios": 7038,
      "interessantes": 7039,
      "fortalecer": 7040,
      "confessava": 7041,
      "confessando": 7042,
      "Seguramente": 7043,
      "Seguiuse": 7044,
      "trazerlhe": 7045,
      "suspensorios": 7046,
      "suspirava": 7047,
      "physicas": 7048,
      "souberam": 7049,
      "recebedor": 7050,
      "salvação": 7051,
      "Pergunteilhe": 7052,
      "imaginei": 7053,
      "offere": 7054,
      "offereceu": 7055,
      "dissimulou": 7056,
      "Conteilhe": 7057,
      "metaphoras": 7058,
      "definitivamente": 7059,
      "mysteriosa": 7060,
      "acodem": 7061,
      "acudia": 7062,
      "acudisse": 7063,
      "diminu": 7064,
      "diminuir": 7065,
      "fòra": 7066,
      "negou": 7067,
      "séria": 7068,
      "séstro": 7069,
      "scismar": 7070,
      "assistia": 7071,
      "merecem": 7072,
      "ingenua": 7073,
      "ingenuidade": 7074,
      "inventou": 7075,
      "empurrei": 7076,
      "catholico": 7077,
      "encardido": 7078,
      "imprimir": 7079,
      "poetas": 7080,
      "victoria": 7081,
      "viriam": 7082,
      "moldura": 7083,
      "molestia": 7084,
      "desconfiar": 7085,
      "respirava": 7086,
      "respiração": 7087,
      "temer": 7088,
      "temendo": 7089,
      "conside": 7090,
      "folhear": 7091,
      "folheto": 7092,
      "contemplação": 7093,
      "fantasia": 7094,
      "gravura": 7095,
      "gravuras": 7096,
      "cezado": 7097,
      "cortejar": 7098,
      "morresse": 7099,
      "morressem": 7100,
      "abriame": 7101,
      "maluca": 7102,
      "homeopathia": 7103,
      "homeopatha": 7104,
      "furto": 7105,
      "sussurrava": 7106,
      "trocariam": 7107,
      "esqueceme": 7108,
      "fórmas": 7109,
      "abraçalo": 7110,
      "Todavia": 7111,
      "adequada": 7112,
      "adequadas": 7113,
      "corrigiu": 7114,
      "dramatur": 7115,
      "deliciosamente": 7116,
      "conservatorio": 7117,
      "acompanhava": 7118,
      "repugna": 7119,
      "repugnancia": 7120,
      "Arran": 7121,
      "Falou": 7122,
      "Ficando": 7123,
      "Intimidade": 7124,
      "Mulher": 7125,
      "Muitos": 7126,
      "Março": 7127,
      "Marcolini": 7128,
      "Passou": 7129,
      "Relê": 7130,
      "Sobre": 7131,
      "Senado": 7132,
      "Suspirou": 7133,
      "Suspendamos": 7134,
      "Trabal": 7135,
      "Teria": 7136,
      "Viste": 7137,
      "Virgem": 7138,
      "dôres": 7139,
      "educação": 7140,
      "grupo": 7141,
      "humidos": 7142,
      "humilha": 7143,
      "ruidosa": 7144,
      "scena": 7145,
      "scenas": 7146,
      "íssima": 7147,
      "degrau": 7148,
      "degraus": 7149,
      "declarou": 7150,
      "declaroume": 7151,
      "defendendo": 7152,
      "assiduas": 7153,
      "sextafeira": 7154,
      "alegra": 7155,
      "allegações": 7156,
      "alcançavam": 7157,
      "padecimentos": 7158,
      "canon": 7159,
      "canoas": 7160,
      "capote": 7161,
      "camisas": 7162,
      "comprado": 7163,
      "rodaque": 7164,
      "annunciado": 7165,
      "lacuna": 7166,
      "lacunas": 7167,
      "gusto": 7168,
      "hombros": 7169,
      "aprecia": 7170,
      "monotonia": 7171,
      "ficassem": 7172,
      "descrevem": 7173,
      "desgraçado": 7174,
      "concebido": 7175,
      "castigada": 7176,
      "discreto": 7177,
      "disposta": 7178,
      "pernadas": 7179,
      "protecção": 7180,
      "gaiola": 7181,
      "existe": 7182,
      "accentuando": 7183,
      "pendulo": 7184,
      "Comecei": 7185,
      "chamoulhe": 7186,
      "poupada": 7187,
      "milhares": 7188,
      "julgase": 7189,
      "intervallo": 7190,
      "intervallos": 7191,
      "negativa": 7192,
      "insinuou": 7193,
      "elogiado": 7194,
      "bebelo": 7195,
      "augment": 7196,
      "augmentar": 7197,
      "beijavame": 7198,
      "separarnos": 7199,
      "eguaes": 7200,
      "vestirme": 7201,
      "descoberta": 7202,
      "descobertas": 7203,
      "transcrever": 7204,
      "difficilmente": 7205,
      "atravessar": 7206,
      "conciliar": 7207,
      "Levantouse": 7208,
      "perdoai": 7209,
      "examinei": 7210,
      "familiaridade": 7211,
      "regresso": 7212,
      "escapava": 7213,
      "economias": 7214,
      "restabele": 7215,
      "embrulho": 7216,
      "acanhada": 7217,
      "acanhamento": 7218,
      "aproveitou": 7219,
      "Chegou": 7220,
      "Erguime": 7221,
      "enthusiasmo": 7222,
      "enthusiasmado": 7223,
      "Augusto": 7224,
      "Acheilhe": 7225,
      "Candelaria": 7226,
      "Custame": 7227,
      "Imitar": 7228,
      "Imagina": 7229,
      "Luciano": 7230,
      "Mostrei": 7231,
      "Priamo": 7232,
      "_dó_": 7233,
      "_p_": 7234,
      "_zero": 7235,
      "adulação": 7236,
      "aconselhou": 7237,
      "baptisado": 7238,
      "fôra": 7239,
      "fastio": 7240,
      "fitoume": 7241,
      "fusco": 7242,
      "fructo": 7243,
      "nervos": 7244,
      "olvido": 7245,
      "sinhô": 7246,
      "rabeca": 7247,
      "decisiva": 7248,
      "aspereza": 7249,
      "quéda": 7250,
      "escassa": 7251,
      "doçura": 7252,
      "secco": 7253,
      "cocegas": 7254,
      "argumentos": 7255,
      "arrastado": 7256,
      "infecta": 7257,
      "inimigos": 7258,
      "allucina": 7259,
      "altitude": 7260,
      "recitou": 7261,
      "empenho": 7262,
      "romances": 7263,
      "enfeite": 7264,
      "imitalo": 7265,
      "polidez": 7266,
      "ridiculas": 7267,
      "rivalidade": 7268,
      "levalo": 7269,
      "filiação": 7270,
      "descorado": 7271,
      "desesperadamente": 7272,
      "desconhecida": 7273,
      "deslumbra": 7274,
      "respeitos": 7275,
      "pegavame": 7276,
      "amuado": 7277,
      "perfil": 7278,
      "periodo": 7279,
      "irritada": 7280,
      "extincto": 7281,
      "contraste": 7282,
      "accesas": 7283,
      "Qualquer": 7284,
      "intrigas": 7285,
      "corneta": 7286,
      "chamandome": 7287,
      "dormindo": 7288,
      "interrupção": 7289,
      "internuncio": 7290,
      "fugiame": 7291,
      "fulgura": 7292,
      "bigode": 7293,
      "aggravou": 7294,
      "bemaventurados": 7295,
      "sombrios": 7296,
      "desejasse": 7297,
      "cabelleireiro": 7298,
      "comprimarios": 7299,
      "fugitivos": 7300,
      "Considera": 7301,
      "descobriam": 7302,
      "apolice": 7303,
      "sestercio": 7304,
      "francez": 7305,
      "Continuei": 7306,
      "1860": 7307,
      "cochilando": 7308,
      "abatida": 7309,
      "Algumas": 7310,
      "magnifico": 7311,
      "pathicas": 7312,
      "piscandome": 7313,
      "Chamavase": 7314,
      "nupcial": 7315,
      "espontaneamente": 7316,
      "tranquil": 7317,
      "distrahido": 7318,
      "Venhamos": 7319,
      "aventurou": 7320,
      "maluquice": 7321,
      "substituto": 7322,
      "Respondilhe": 7323,
      "redarguiu": 7324,
      "resurreição": 7325,
      "parochia": 7326,
      "obscuro": 7327,
      "inconscientemente": 7328,
      "camarote": 7329,
      "Apalpei": 7330,
      "Abane": 7331,
      "Achilles": 7332,
      "Bahia": 7333,
      "Biblia": 7334,
      "Ciumes": 7335,
      "Criméa": 7336,
      "Durante": 7337,
      "Egypto": 7338,
      "Fosse": 7339,
      "Fernan": 7340,
      "Grieux": 7341,
      "Italia": 7342,
      "Jurámos": 7343,
      "Leitor": 7344,
      "Melhor": 7345,
      "Obrigado": 7346,
      "Preciso": 7347,
      "Pandora": 7348,
      "Pobres": 7349,
      "Plutarcho": 7350,
      "Quitanda": 7351,
      "Russia": 7352,
      "Sorriu": 7353,
      "Segredo": 7354,
      "Teve": 7355,
      "Tartaruga": 7356,
      "Thomaz": 7357,
      "Tentei": 7358,
      "Thetis": 7359,
      "TerraSanta": 7360,
      "Theresa": 7361,
      "Vossa": 7362,
      "_dandy": 7363,
      "_Historia": 7364,
      "aturdido": 7365,
      "ajoelhavam": 7366,
      "blema": 7367,
      "becco": 7368,
      "classi": 7369,
      "gósto": 7370,
      "tèm": 7371,
      "utilidade": 7372,
      "yramides": 7373,
      "área": 7374,
      "radical": 7375,
      "ralhava": 7376,
      "detevese": 7377,
      "determin": 7378,
      "decorou": 7379,
      "deputado": 7380,
      "esburacando": 7381,
      "documentos": 7382,
      "sexual": 7383,
      "arvores": 7384,
      "artista": 7385,
      "incutir": 7386,
      "indignação": 7387,
      "inconciliaveis": 7388,
      "involuntaria": 7389,
      "alternando": 7390,
      "alphabeto": 7391,
      "recommen": 7392,
      "rendeu": 7393,
      "retalhos": 7394,
      "reclusão": 7395,
      "relevação": 7396,
      "retrospectiva": 7397,
      "matrimonio": 7398,
      "empresario": 7399,
      "embaraçar": 7400,
      "orchestra": 7401,
      "orphão": 7402,
      "orthographia": 7403,
      "pateo": 7404,
      "paternidade": 7405,
      "patamar": 7406,
      "paizagens": 7407,
      "caprich": 7408,
      "catalogo": 7409,
      "vadiação": 7410,
      "competir": 7411,
      "comborço": 7412,
      "commandante": 7413,
      "complicavase": 7414,
      "ensaios": 7415,
      "envenenadas": 7416,
      "enxovalha": 7417,
      "analogo": 7418,
      "diccionarios": 7419,
      "vigaira": 7420,
      "sociedade": 7421,
      "solemne": 7422,
      "soprano": 7423,
      "sobresalto": 7424,
      "sobrancel": 7425,
      "honorarios": 7426,
      "montanhas": 7427,
      "travesseiro": 7428,
      "desfecho": 7429,
      "destinos": 7430,
      "resentimentos": 7431,
      "verniz": 7432,
      "casuarina": 7433,
      "chicote": 7434,
      "Capitolina": 7435,
      "perfeitissimo": 7436,
      "bondades": 7437,
      "attribuo": 7438,
      "premios": 7439,
      "expansivo": 7440,
      "contiguos": 7441,
      "graduação": 7442,
      "velhice": 7443,
      "acódeme": 7444,
      "misericordia": 7445,
      "dormisse": 7446,
      "Paraná": 7447,
      "juventude": 7448,
      "mentiroso": 7449,
      "furiosas": 7450,
      "afrancezado": 7451,
      "meninice": 7452,
      "pharmacia": 7453,
      "therapeutica": 7454,
      "Petropolis": 7455,
      "estupefacção": 7456,
      "substancia": 7457,
      "triumphalmente": 7458,
      "dezenove": 7459,
      "Confessoume": 7460,
      "demolissem": 7461,
      "Fernandes": 7462,
      "_dandy_": 7463,
      "!--": 7464,
      "!...": 7465,
      ").": 7466,
      ",**": 7467,
      ".,": 7468,
      ".;": 7469,
      ".--": 7470,
      "04": 7471,
      "22": 7472,
      "204": 7473,
      "48": 7474,
      "400": 7475,
      "58": 7476,
      "500": 7477,
      "82": 7478,
      ":**": 7479,
      ":--«": 7480,
      ";--": 7481,
      "AG": 7482,
      "AP": 7483,
      "Ab": 7484,
      "Ad": 7485,
      "Af": 7486,
      "At": 7487,
      "Ant": 7488,
      "Ame": 7489,
      "Aca": 7490,
      "Adi": 7491,
      "Agu": 7492,
      "Ale": 7493,
      "Amo": 7494,
      "Ali": 7495,
      "Apro": 7496,
      "Agra": 7497,
      "Abra": 7498,
      "Agos": 7499,
      "Agar": 7500,
      "Acha": 7501,
      "Ami": 7502,
      "Abre": 7503,
      "Aju": 7504,
      "Aze": 7505,
      "Alembra": 7506,
      "Ancia": 7507,
      "Acaso": 7508,
      "Apanh": 7509,
      "Alen": 7510,
      "Adão": 7511,
      "Alle": 7512,
      "Arios": 7513,
      "Abel": 7514,
      "Aquelles": 7515,
      "Ajoel": 7516,
      "Anjo": 7517,
      "Achado": 7518,
      "Aguardei": 7519,
      "Amanheceu": 7520,
      "ANT": 7521,
      "BE": 7522,
      "Be": 7523,
      "Bor": 7524,
      "Bei": 7525,
      "Bus": 7526,
      "Bras": 7527,
      "Bab": 7528,
      "Bru": 7529,
      "Braz": 7530,
      "Bran": 7531,
      "Bon": 7532,
      "Bord": 7533,
      "Baptis": 7534,
      "CI": 7535,
      "CV": 7536,
      "Ca": 7537,
      "Ce": 7538,
      "Car": 7539,
      "Cou": 7540,
      "Cum": 7541,
      "Cri": 7542,
      "Cria": 7543,
      "Cab": 7544,
      "CII": 7545,
      "Cru": 7546,
      "Cidade": 7547,
      "CVII": 7548,
      "Corre": 7549,
      "Cada": 7550,
      "Chei": 7551,
      "CIX": 7552,
      "CVIII": 7553,
      "CIV": 7554,
      "CVI": 7555,
      "CIII": 7556,
      "Certo": 7557,
      "Chor": 7558,
      "Citou": 7559,
      "Chia": 7560,
      "Cabo": 7561,
      "Caro": 7562,
      "Creou": 7563,
      "Cinco": 7564,
      "CAP": 7565,
      "DE": 7566,
      "Dou": 7567,
      "Deu": 7568,
      "Dest": 7569,
      "Dami": 7570,
      "Deste": 7571,
      "Daqui": 7572,
      "Dita": 7573,
      "Delles": 7574,
      "Donde": 7575,
      "Data": 7576,
      "Deli": 7577,
      "Despe": 7578,
      "Dahi": 7579,
      "Demo": 7580,
      "Deume": 7581,
      "Dallo": 7582,
      "Dentro": 7583,
      "EL": 7584,
      "EQ": 7585,
      "EZ": 7586,
      "Eia": 7587,
      "Eva": 7588,
      "Eli": 7589,
      "Equi": 7590,
      "Eter": 7591,
      "Elogia": 7592,
      "Eilo": 7593,
      "Evan": 7594,
      "Epistola": 7595,
      "Eden": 7596,
      "FI": 7597,
      "Fe": 7598,
      "Fu": 7599,
      "Fó": 7600,
      "Fei": 7601,
      "Frei": 7602,
      "Fil": 7603,
      "Fulo": 7604,
      "Faltar": 7605,
      "Finalmente": 7606,
      "Go": 7607,
      "Gas": 7608,
      "Gre": 7609,
      "Gor": 7610,
      "Gei": 7611,
      "Gan": 7612,
      "Gon": 7613,
      "Gabri": 7614,
      "Genes": 7615,
      "Hes": 7616,
      "Hão": 7617,
      "Houve": 7618,
      "IT": 7619,
      "Isa": 7620,
      "Ins": 7621,
      "Iamos": 7622,
      "Iremos": 7623,
      "Iase": 7624,
      "IAG": 7625,
      "IEL": 7626,
      "Je": 7627,
      "Jes": 7628,
      "Jer": 7629,
      "Jun": 7630,
      "Job": 7631,
      "LV": 7632,
      "Lin": 7633,
      "Lis": 7634,
      "LII": 7635,
      "LVII": 7636,
      "LIX": 7637,
      "LVIII": 7638,
      "LIV": 7639,
      "LVI": 7640,
      "LIII": 7641,
      "Limit": 7642,
      "Lage": 7643,
      "Mó": 7644,
      "Mal": 7645,
      "Mui": 7646,
      "Mando": 7647,
      "Mex": 7648,
      "Mac": 7649,
      "Mach": 7650,
      "Minas": 7651,
      "Mur": 7652,
      "Mãe": 7653,
      "Meta": 7654,
      "Muni": 7655,
      "NA": 7656,
      "Nh": 7657,
      "Nor": 7658,
      "Nan": 7659,
      "Nho": 7660,
      "Nelle": 7661,
      "Neg": 7662,
      "Of": 7663,
      "Ol": 7664,
      "Op": 7665,
      "Ox": 7666,
      "Olh": 7667,
      "Onde": 7668,
      "Opas": 7669,
      "Obe": 7670,
      "OLI": 7671,
      "Onze": 7672,
      "Pra": 7673,
      "Pes": 7674,
      "Pal": 7675,
      "Pri": 7676,
      "Pun": 7677,
      "Peg": 7678,
      "Prin": 7679,
      "Prim": 7680,
      "Pur": 7681,
      "Phy": 7682,
      "Preso": 7683,
      "Prepara": 7684,
      "Pila": 7685,
      "Pyramides": 7686,
      "Ra": 7687,
      "Ro": 7688,
      "Ras": 7689,
      "Rap": 7690,
      "Rec": 7691,
      "Rhe": 7692,
      "Rob": 7693,
      "Rita": 7694,
      "Rino": 7695,
      "Rhen": 7696,
      "Rig": 7697,
      "Rime": 7698,
      "Sco": 7699,
      "Sin": 7700,
      "Sha": 7701,
      "Seu": 7702,
      "Sir": 7703,
      "Sat": 7704,
      "Sac": 7705,
      "Sira": 7706,
      "Sendo": 7707,
      "Scis": 7708,
      "Son": 7709,
      "SANT": 7710,
      "Tro": 7711,
      "Tei": 7712,
      "Tim": 7713,
      "Tres": 7714,
      "Testa": 7715,
      "Tram": 7716,
      "Temos": 7717,
      "Tens": 7718,
      "Tinhas": 7719,
      "Trepliquei": 7720,
      "Uso": 7721,
      "Uns": 7722,
      "Usavamos": 7723,
      "UIEL": 7724,
      "Vè": 7725,
      "Via": 7726,
      "Vei": 7727,
      "Vent": 7728,
      "Vio": 7729,
      "Vint": 7730,
      "Vás": 7731,
      "Vesti": 7732,
      "Vindo": 7733,
      "Vul": 7734,
      "Vida": 7735,
      "Vadi": 7736,
      "Valha": 7737,
      "Virá": 7738,
      "Varias": 7739,
      "Viame": 7740,
      "Viase": 7741,
      "Velha": 7742,
      "Win": 7743,
      "Wal": 7744,
      "Wag": 7745,
      "XI": 7746,
      "XV": 7747,
      "XII": 7748,
      "XVII": 7749,
      "XIX": 7750,
      "XIV": 7751,
      "XVI": 7752,
      "XIII": 7753,
      "_b": 7754,
      "_c": 7755,
      "_g": 7756,
      "_k": 7757,
      "_s": 7758,
      "_de": 7759,
      "_em": 7760,
      "_sa": 7761,
      "_an": 7762,
      "_ce": 7763,
      "_ainda": 7764,
      "_ab": 7765,
      "_Pa": 7766,
      "_qua": 7767,
      "_Vo": 7768,
      "_cal": 7769,
      "_come": 7770,
      "_Uma": 7771,
      "_Tu": 7772,
      "_Man": 7773,
      "_gou": 7774,
      "_filha": 7775,
      "_desde": 7776,
      "_Ho": 7777,
      "_ré": 7778,
      "_apesar": 7779,
      "_In": 7780,
      "_grave": 7781,
      "_perdão": 7782,
      "_Casmurro": 7783,
      "_Do": 7784,
      "_Othello": 7785,
      "_Fa": 7786,
      "_appro": 7787,
      "_prosa": 7788,
      "_gravissimo": 7789,
      "_duo": 7790,
      "_reparação": 7791,
      "_Mulher": 7792,
      "_Tartaruga": 7793,
      "_mentiroso": 7794,
      "aus": 7795,
      "aver": 7796,
      "aço": 7797,
      "atava": 7798,
      "agas": 7799,
      "avar": 7800,
      "aquar": 7801,
      "afug": 7802,
      "aterra": 7803,
      "avase": 7804,
      "axa": 7805,
      "atira": 7806,
      "atirou": 7807,
      "avalia": 7808,
      "avul": 7809,
      "açando": 7810,
      "ativer": 7811,
      "atirasse": 7812,
      "arame": 7813,
      "atirava": 7814,
      "afag": 7815,
      "atirouse": 7816,
      "avalias": 7817,
      "ativeme": 7818,
      "afiliação": 7819,
      "by": 7820,
      "bum": 7821,
      "bla": 7822,
      "bam": 7823,
      "besse": 7824,
      "bab": 7825,
      "biam": 7826,
      "bris": 7827,
      "bru": 7828,
      "baria": 7829,
      "belo": 7830,
      "bém": 7831,
      "bur": 7832,
      "bré": 7833,
      "baba": 7834,
      "bambas": 7835,
      "brára": 7836,
      "buira": 7837,
      "cc": 7838,
      "cm": 7839,
      "cè": 7840,
      "cò": 7841,
      "cô": 7842,
      "cit": 7843,
      "cinha": 7844,
      "cti": 7845,
      "cli": 7846,
      "ccas": 7847,
      "ccu": 7848,
      "ctar": 7849,
      "ctor": 7850,
      "cinar": 7851,
      "crespo": 7852,
      "celo": 7853,
      "citas": 7854,
      "centra": 7855,
      "citar": 7856,
      "centen": 7857,
      "citos": 7858,
      "cimo": 7859,
      "cinhos": 7860,
      "ctivos": 7861,
      "ctua": 7862,
      "cestes": 7863,
      "clica": 7864,
      "ctadores": 7865,
      "dí": 7866,
      "dres": 7867,
      "dras": 7868,
      "dós": 7869,
      "dmis": 7870,
      "dsor": 7871,
      "dimos": 7872,
      "duidade": 7873,
      "dindose": 7874,
      "droume": 7875,
      "dús": 7876,
      "díssima": 7877,
      "eia": 7878,
      "edi": 7879,
      "egos": 7880,
      "ebre": 7881,
      "epi": 7882,
      "ecido": 7883,
      "evocação": 7884,
      "ealo": 7885,
      "evame": 7886,
      "egraph": 7887,
      "earam": 7888,
      "edição": 7889,
      "edoso": 7890,
      "edosa": 7891,
      "etrar": 7892,
      "epistola": 7893,
      "edosos": 7894,
      "etouse": 7895,
      "fem": 7896,
      "feu": 7897,
      "fam": 7898,
      "frou": 7899,
      "flu": 7900,
      "fámos": 7901,
      "frer": 7902,
      "ffec": 7903,
      "fitas": 7904,
      "fusas": 7905,
      "fusão": 7906,
      "fòr": 7907,
      "freio": 7908,
      "fela": 7909,
      "fatal": 7910,
      "gi": 7911,
      "ger": 7912,
      "gna": 7913,
      "git": 7914,
      "gias": 7915,
      "gras": 7916,
      "grin": 7917,
      "gris": 7918,
      "glor": 7919,
      "giu": 7920,
      "genh": 7921,
      "gida": 7922,
      "geli": 7923,
      "gil": 7924,
      "gamos": 7925,
      "giros": 7926,
      "galha": 7927,
      "gitei": 7928,
      "geiros": 7929,
      "gismo": 7930,
      "gãos": 7931,
      "heu": 7932,
      "hinha": 7933,
      "hir": 7934,
      "hões": 7935,
      "hendo": 7936,
      "hasse": 7937,
      "hida": 7938,
      "hespa": 7939,
      "hegy": 7940,
      "hula": 7941,
      "ise": 7942,
      "iei": 7943,
      "ivo": 7944,
      "icos": 7945,
      "izes": 7946,
      "ivos": 7947,
      "igia": 7948,
      "iencia": 7949,
      "iedade": 7950,
      "ilava": 7951,
      "imei": 7952,
      "ilhou": 7953,
      "ilio": 7954,
      "jó": 7955,
      "jú": 7956,
      "jun": 7957,
      "joume": 7958,
      "jamos": 7959,
      "jissimo": 7960,
      "jentos": 7961,
      "ks": 7962,
      "kespe": 7963,
      "klin": 7964,
      "ll": 7965,
      "lè": 7966,
      "lto": 7967,
      "lit": 7968,
      "luma": 7969,
      "lmes": 7970,
      "linda": 7971,
      "lgado": 7972,
      "laria": 7973,
      "leira": 7974,
      "linh": 7975,
      "lys": 7976,
      "limpe": 7977,
      "luir": 7978,
      "ltámos": 7979,
      "lelos": 7980,
      "my": 7981,
      "mé": 7982,
      "mpa": 7983,
      "mun": 7984,
      "mpos": 7985,
      "mões": 7986,
      "más": 7987,
      "moume": 7988,
      "mbu": 7989,
      "mparado": 7990,
      "ní": 7991,
      "nó": 7992,
      "nca": 7993,
      "num": 7994,
      "ngu": 7995,
      "nci": 7996,
      "ngar": 7997,
      "ncos": 7998,
      "ninho": 7999
    },
    "merges": [
      [
        "r",
        "a"
      ],
      [
        "d",
        "e"
      ],
      [
        "o",
        "s"
      ],
      [
        "a",
        "s"
      ],
      [
        "q",
        "u"
      ],
      [
        "e",
        "s"
      ],
      [
        "qu",
        "e"
      ],
      [
        "d",
        "o"
      ],
      [
        "s",
        "e"
      ],
      [
        "n",
        "t"
      ],
      [
        "c",
        "o"
      ],
      [
        "m",
        "e"
      ],
      [
        "ã",
        "o"
      ],
      [
        "a",
        "r"
      ],
      [
        "i",
        "n"
      ],
      [
        "d",
        "a"
      ],
      [
        "i",
        "a"
      ],
      [
        "e",
        "r"
      ],
      [
        "a",
        "l"
      ],
      [
        "r",
        "e"
      ],
      [
        "i",
        "s"
      ],
      [
        "o",
        "u"
      ],
      [
        "m",
        "a"
      ],
      [
        "e",
        "m"
      ],
      [
        "o",
        "r"
      ],
      [
        "t",
        "a"
      ],
      [
        "t",
        "o"
      ],
      [
        "p",
        "a"
      ],
      [
        "e",
        "l"
      ],
      [
        "h",
        "a"
      ],
      [
        "c",
        "a"
      ],
      [
        "v",
        "a"
      ],
      [
        "n",
        "ão"
      ],
      [
        "co",
        "m"
      ],
      [
        "r",
        "o"
      ],
      [
        "e",
        "n"
      ],
      [
        "l",
        "h"
      ],
      [
        "u",
        "m"
      ],
      [
        "s",
        "a"
      ],
      [
        "e",
        "i"
      ],
      [
        "i",
        "m"
      ],
      [
        "a",
        "n"
      ],
      [
        "e",
        "ra"
      ],
      [
        "-",
        "-"
      ],
      [
        "d",
        "i"
      ],
      [
        "n",
        "a"
      ],
      [
        "e",
        "u"
      ],
      [
        "l",
        "a"
      ],
      [
        ".",
        "."
      ],
      [
        "i",
        "t"
      ],
      [
        "n",
        "o"
      ],
      [
        "nt",
        "e"
      ],
      [
        "p",
        "o"
      ],
      [
        "r",
        "i"
      ],
      [
        "g",
        "u"
      ],
      [
        "l",
        "e"
      ],
      [
        "pa",
        "ra"
      ],
      [
        "v",
        "i"
      ],
      [
        "in",
        "ha"
      ],
      [
        "s",
        "o"
      ],
      [
        "t",
        "i"
      ],
      [
        "h",
        "o"
      ],
      [
        "g",
        "o"
      ],
      [
        "u",
        "s"
      ],
      [
        "a",
        "p"
      ],
      [
        "m",
        "as"
      ],
      [
        "p",
        "or"
      ],
      [
        "m",
        "o"
      ],
      [
        "e",
        "nt"
      ],
      [
        "d",
        "os"
      ],
      [
        "c",
        "i"
      ],
      [
        "ç",
        "ão"
      ],
      [
        "f",
        "i"
      ],
      [
        "t",
        "ra"
      ],
      [
        "de",
        "s"
      ],
      [
        "lh",
        "e"
      ],
      [
        "l",
        "i"
      ],
      [
        "l",
        "o"
      ],
      [
        "r",
        "es"
      ],
      [
        "p",
        "e"
      ],
      [
        "t",
        "u"
      ],
      [
        "t",
        "e"
      ],
      [
        "u",
        "ma"
      ],
      [
        "co",
        "n"
      ],
      [
        "v",
        "e"
      ],
      [
        "v",
        "o"
      ],
      [
        "n",
        "os"
      ],
      [
        "v",
        "er"
      ],
      [
        "i",
        "o"
      ],
      [
        "c",
        "as"
      ],
      [
        "a",
        "m"
      ],
      [
        "u",
        "i"
      ],
      [
        "n",
        "do"
      ],
      [
        "se",
        "m"
      ],
      [
        "d",
        "as"
      ],
      [
        "c",
        "h"
      ],
      [
        "me",
        "nte"
      ],
      [
        "d",
        "is"
      ],
      [
        "ma",
        "is"
      ],
      [
        "ç",
        "a"
      ],
      [
        "C",
        "ap"
      ],
      [
        "it",
        "ú"
      ],
      [
        "Cap",
        "itú"
      ],
      [
        "p",
        "er"
      ],
      [
        "a",
        "o"
      ],
      [
        "c",
        "u"
      ],
      [
        "com",
        "o"
      ],
      [
        "..",
        "."
      ],
      [
        "m",
        "inha"
      ],
      [
        "N",
        "ão"
      ],
      [
        "qu",
        "i"
      ],
      [
        "an",
        "do"
      ],
      [
        "m",
        "ã"
      ],
      [
        "p",
        "ro"
      ],
      [
        "nt",
        "o"
      ],
      [
        "m",
        "os"
      ],
      [
        "g",
        "a"
      ],
      [
        "i",
        "r"
      ],
      [
        "al",
        "a"
      ],
      [
        "da",
        "de"
      ],
      [
        "d",
        "ia"
      ],
      [
        "se",
        "r"
      ],
      [
        "e",
        "c"
      ],
      [
        "s",
        "im"
      ],
      [
        "p",
        "ar"
      ],
      [
        "b",
        "em"
      ],
      [
        "i",
        "as"
      ],
      [
        "ra",
        "s"
      ],
      [
        "t",
        "er"
      ],
      [
        "m",
        "es"
      ],
      [
        "b",
        "o"
      ],
      [
        "mã",
        "e"
      ],
      [
        "el",
        "le"
      ],
      [
        "a",
        "t"
      ],
      [
        "p",
        "re"
      ],
      [
        "t",
        "ar"
      ],
      [
        "f",
        "o"
      ],
      [
        "el",
        "la"
      ],
      [
        "e",
        "x"
      ],
      [
        "co",
        "nt"
      ],
      [
        "u",
        "a"
      ],
      [
        "es",
        "ta"
      ],
      [
        "f",
        "a"
      ],
      [
        "g",
        "ra"
      ],
      [
        "E",
        "s"
      ],
      [
        "p",
        "ri"
      ],
      [
        "r",
        "ia"
      ],
      [
        "ve",
        "z"
      ],
      [
        "s",
        "i"
      ],
      [
        "b",
        "ra"
      ],
      [
        "n",
        "em"
      ],
      [
        "t",
        "em"
      ],
      [
        "c",
        "ia"
      ],
      [
        "n",
        "de"
      ],
      [
        "c",
        "e"
      ],
      [
        "v",
        "el"
      ],
      [
        "u",
        "n"
      ],
      [
        "es",
        "t"
      ],
      [
        "o",
        "lh"
      ],
      [
        "ca",
        "b"
      ],
      [
        "a",
        "nt"
      ],
      [
        "a",
        "c"
      ],
      [
        "in",
        "a"
      ],
      [
        "di",
        "z"
      ],
      [
        "cas",
        "a"
      ],
      [
        "r",
        "os"
      ],
      [
        "dis",
        "se"
      ],
      [
        "m",
        "u"
      ],
      [
        "fo",
        "i"
      ],
      [
        "ou",
        "t"
      ],
      [
        "ou",
        "tra"
      ],
      [
        "p",
        "el"
      ],
      [
        "Q",
        "u"
      ],
      [
        "i",
        "nt"
      ],
      [
        "m",
        "ui"
      ],
      [
        "s",
        "u"
      ],
      [
        "c",
        "ar"
      ],
      [
        "d",
        "u"
      ],
      [
        "f",
        "al"
      ],
      [
        "s",
        "ó"
      ],
      [
        "v",
        "ia"
      ],
      [
        "n",
        "h"
      ],
      [
        "c",
        "re"
      ],
      [
        "p",
        "os"
      ],
      [
        "es",
        "se"
      ],
      [
        "co",
        "r"
      ],
      [
        "de",
        "l"
      ],
      [
        "p",
        "as"
      ],
      [
        "t",
        "or"
      ],
      [
        "ta",
        "m"
      ],
      [
        "m",
        "im"
      ],
      [
        "i",
        "x"
      ],
      [
        "tu",
        "do"
      ],
      [
        "me",
        "u"
      ],
      [
        "olh",
        "os"
      ],
      [
        "J",
        "os"
      ],
      [
        "Jos",
        "é"
      ],
      [
        "ra",
        "m"
      ],
      [
        "d",
        "ar"
      ],
      [
        "co",
        "u"
      ],
      [
        "po",
        "is"
      ],
      [
        "c",
        "er"
      ],
      [
        "que",
        "l"
      ],
      [
        "p",
        "u"
      ],
      [
        "õ",
        "es"
      ],
      [
        "p",
        "en"
      ],
      [
        "D",
        "ias"
      ],
      [
        "l",
        "es"
      ],
      [
        "m",
        "or"
      ],
      [
        "in",
        "da"
      ],
      [
        "al",
        "gu"
      ],
      [
        "era",
        "m"
      ],
      [
        "tam",
        "bem"
      ],
      [
        "mui",
        "to"
      ],
      [
        "C",
        "o"
      ],
      [
        "co",
        "b"
      ],
      [
        "ç",
        "o"
      ],
      [
        "go",
        "ra"
      ],
      [
        "am",
        "i"
      ],
      [
        "c",
        "ê"
      ],
      [
        "i",
        "ra"
      ],
      [
        "g",
        "os"
      ],
      [
        "m",
        "in"
      ],
      [
        "fa",
        "z"
      ],
      [
        "t",
        "ão"
      ],
      [
        "de",
        "pois"
      ],
      [
        "nt",
        "a"
      ],
      [
        "sa",
        "b"
      ],
      [
        "t",
        "os"
      ],
      [
        "p",
        "era"
      ],
      [
        "t",
        "as"
      ],
      [
        "in",
        "ar"
      ],
      [
        "na",
        "da"
      ],
      [
        "g",
        "ar"
      ],
      [
        "en",
        "do"
      ],
      [
        "v",
        "al"
      ],
      [
        "a",
        "inda"
      ],
      [
        "ala",
        "v"
      ],
      [
        "c",
        "ha"
      ],
      [
        "l",
        "as"
      ],
      [
        "p",
        "alav"
      ],
      [
        "a",
        "b"
      ],
      [
        "j",
        "á"
      ],
      [
        "t",
        "inha"
      ],
      [
        "va",
        "m"
      ],
      [
        "f",
        "e"
      ],
      [
        "f",
        "ei"
      ],
      [
        "n",
        "s"
      ],
      [
        "v",
        "is"
      ],
      [
        "d",
        "re"
      ],
      [
        "tem",
        "po"
      ],
      [
        "as",
        "sim"
      ],
      [
        "pri",
        "me"
      ],
      [
        "mes",
        "mo"
      ],
      [
        "a",
        "gora"
      ],
      [
        "t",
        "al"
      ],
      [
        "c",
        "os"
      ],
      [
        "p",
        "res"
      ],
      [
        "qu",
        "ando"
      ],
      [
        "l",
        "ha"
      ],
      [
        "p",
        "ou"
      ],
      [
        "Es",
        "cob"
      ],
      [
        "Escob",
        "ar"
      ],
      [
        "ç",
        "ões"
      ],
      [
        "in",
        "ho"
      ],
      [
        "m",
        "i"
      ],
      [
        "ia",
        "m"
      ],
      [
        "vi",
        "da"
      ],
      [
        "do",
        "r"
      ],
      [
        "tu",
        "ra"
      ],
      [
        "l",
        "em"
      ],
      [
        "is",
        "to"
      ],
      [
        "á",
        "s"
      ],
      [
        "out",
        "ro"
      ],
      [
        "M",
        "as"
      ],
      [
        "m",
        "ar"
      ],
      [
        "n",
        "as"
      ],
      [
        "r",
        "ou"
      ],
      [
        "pa",
        "dre"
      ],
      [
        "sem",
        "inar"
      ],
      [
        "i",
        "de"
      ],
      [
        "p",
        "li"
      ],
      [
        "se",
        "nt"
      ],
      [
        "es",
        "te"
      ],
      [
        "ou",
        "vi"
      ],
      [
        "e",
        "g"
      ],
      [
        "r",
        "in"
      ],
      [
        "par",
        "ec"
      ],
      [
        "P",
        "a"
      ],
      [
        "b",
        "a"
      ],
      [
        "c",
        "l"
      ],
      [
        "pa",
        "e"
      ],
      [
        "j",
        "a"
      ],
      [
        "vo",
        "l"
      ],
      [
        "p",
        "es"
      ],
      [
        "per",
        "gu"
      ],
      [
        "diz",
        "er"
      ],
      [
        "cou",
        "sa"
      ],
      [
        "lh",
        "o"
      ],
      [
        "at",
        "é"
      ],
      [
        "j",
        "o"
      ],
      [
        "de",
        "ix"
      ],
      [
        "as",
        "se"
      ],
      [
        "I",
        "I"
      ],
      [
        "l",
        "os"
      ],
      [
        "m",
        "al"
      ],
      [
        "a",
        "cab"
      ],
      [
        "g",
        "e"
      ],
      [
        "h",
        "e"
      ],
      [
        "b",
        "re"
      ],
      [
        "g",
        "um"
      ],
      [
        "i",
        "do"
      ],
      [
        "f",
        "os"
      ],
      [
        "re",
        "i"
      ],
      [
        "vo",
        "cê"
      ],
      [
        "E",
        "u"
      ],
      [
        "ó",
        "de"
      ],
      [
        "me",
        "nto"
      ],
      [
        "X",
        "X"
      ],
      [
        "a",
        "ch"
      ],
      [
        "a",
        "qui"
      ],
      [
        "c",
        "eu"
      ],
      [
        "al",
        "gum"
      ],
      [
        "pe",
        "di"
      ],
      [
        "j",
        "u"
      ],
      [
        "fe",
        "z"
      ],
      [
        "E",
        "ra"
      ],
      [
        "se",
        "gu"
      ],
      [
        "me",
        "lh"
      ],
      [
        "ho",
        "ra"
      ],
      [
        "int",
        "er"
      ],
      [
        "A",
        "s"
      ],
      [
        "f",
        "or"
      ],
      [
        "se",
        "i"
      ],
      [
        "o",
        "b"
      ],
      [
        "r",
        "is"
      ],
      [
        "esta",
        "va"
      ],
      [
        "seminar",
        "io"
      ],
      [
        "melh",
        "or"
      ],
      [
        "a",
        "os"
      ],
      [
        "t",
        "en"
      ],
      [
        "z",
        "a"
      ],
      [
        "z",
        "e"
      ],
      [
        "que",
        "r"
      ],
      [
        "f",
        "er"
      ],
      [
        "ra",
        "r"
      ],
      [
        "de",
        "u"
      ],
      [
        "es",
        "pera"
      ],
      [
        "ta",
        "va"
      ],
      [
        "it",
        "u"
      ],
      [
        "po",
        "dia"
      ],
      [
        "del",
        "la"
      ],
      [
        "c",
        "ei"
      ],
      [
        "f",
        "in"
      ],
      [
        "ta",
        "nto"
      ],
      [
        "ho",
        "me"
      ],
      [
        "qui",
        "z"
      ],
      [
        "n",
        "da"
      ],
      [
        "por",
        "que"
      ],
      [
        "lo",
        "go"
      ],
      [
        "ver",
        "dade"
      ],
      [
        "fos",
        "se"
      ],
      [
        "p",
        "é"
      ],
      [
        "r",
        "ua"
      ],
      [
        "s",
        "ão"
      ],
      [
        "n",
        "e"
      ],
      [
        "p",
        "óde"
      ],
      [
        "s",
        "ar"
      ],
      [
        "palav",
        "ras"
      ],
      [
        "me",
        "nt"
      ],
      [
        "ant",
        "es"
      ],
      [
        "lem",
        "bra"
      ],
      [
        "pes",
        "so"
      ],
      [
        "f",
        "u"
      ],
      [
        "t",
        "ou"
      ],
      [
        "de",
        "r"
      ],
      [
        "Qu",
        "ando"
      ],
      [
        "pergu",
        "nt"
      ],
      [
        "es",
        "ti"
      ],
      [
        "ide",
        "ia"
      ],
      [
        "se",
        "n"
      ],
      [
        "p",
        "i"
      ],
      [
        "me",
        "t"
      ],
      [
        "eu",
        "s"
      ],
      [
        "h",
        "as"
      ],
      [
        "an",
        "nos"
      ],
      [
        "fi",
        "lho"
      ],
      [
        "out",
        "ros"
      ],
      [
        "fal",
        "ar"
      ],
      [
        "algu",
        "ma"
      ],
      [
        "n",
        "i"
      ],
      [
        "s",
        "as"
      ],
      [
        "con",
        "f"
      ],
      [
        "f",
        "im"
      ],
      [
        "ç",
        "as"
      ],
      [
        "qu",
        "a"
      ],
      [
        "quel",
        "la"
      ],
      [
        "pou",
        "co"
      ],
      [
        "D",
        "eus"
      ],
      [
        "c",
        "is"
      ],
      [
        "z",
        "es"
      ],
      [
        "in",
        "s"
      ],
      [
        "in",
        "do"
      ],
      [
        "por",
        "ta"
      ],
      [
        "t",
        "ina"
      ],
      [
        "u",
        "l"
      ],
      [
        "to",
        "dos"
      ],
      [
        "ent",
        "ão"
      ],
      [
        "ch",
        "e"
      ],
      [
        "a",
        "va"
      ],
      [
        "l",
        "or"
      ],
      [
        "s",
        "os"
      ],
      [
        "ci",
        "o"
      ],
      [
        "P",
        "o"
      ],
      [
        "m",
        "ão"
      ],
      [
        "r",
        "u"
      ],
      [
        "que",
        "i"
      ],
      [
        "cu",
        "l"
      ],
      [
        "ga",
        "do"
      ],
      [
        "cab",
        "e"
      ],
      [
        "n",
        "ça"
      ],
      [
        "mi",
        "go"
      ],
      [
        "c",
        "ca"
      ],
      [
        "ra",
        "z"
      ],
      [
        "is",
        "so"
      ],
      [
        "pel",
        "a"
      ],
      [
        "home",
        "m"
      ],
      [
        "a",
        "do"
      ],
      [
        "t",
        "im"
      ],
      [
        "com",
        "migo"
      ],
      [
        "Qu",
        "e"
      ],
      [
        "J",
        "us"
      ],
      [
        "S",
        "e"
      ],
      [
        "a",
        "f"
      ],
      [
        "i",
        "u"
      ],
      [
        "ra",
        "ção"
      ],
      [
        "tra",
        "z"
      ],
      [
        "gra",
        "nde"
      ],
      [
        "cabe",
        "ça"
      ],
      [
        "V",
        "o"
      ],
      [
        "i",
        "ca"
      ],
      [
        "ou",
        "me"
      ],
      [
        "U",
        "m"
      ],
      [
        "c",
        "al"
      ],
      [
        "l",
        "u"
      ],
      [
        "do",
        "us"
      ],
      [
        "nt",
        "es"
      ],
      [
        "me",
        "us"
      ],
      [
        "ma",
        "n"
      ],
      [
        "ex",
        "pli"
      ],
      [
        "pas",
        "sa"
      ],
      [
        "algu",
        "ns"
      ],
      [
        "D",
        "e"
      ],
      [
        "E",
        "m"
      ],
      [
        "s",
        "us"
      ],
      [
        "ó",
        "s"
      ],
      [
        "me",
        "n"
      ],
      [
        "fi",
        "z"
      ],
      [
        "li",
        "v"
      ],
      [
        "tura",
        "l"
      ],
      [
        "C",
        "os"
      ],
      [
        "i",
        "os"
      ],
      [
        "l",
        "á"
      ],
      [
        "t",
        "re"
      ],
      [
        "se",
        "us"
      ],
      [
        "res",
        "po"
      ],
      [
        "B",
        "ent"
      ],
      [
        "c",
        "ção"
      ],
      [
        "ar",
        "ia"
      ],
      [
        "ma",
        "nh"
      ],
      [
        "ca",
        "p"
      ],
      [
        "ei",
        "ra"
      ],
      [
        "ent",
        "re"
      ],
      [
        "nos",
        "sa"
      ],
      [
        "quel",
        "le"
      ],
      [
        "prime",
        "i"
      ],
      [
        "lor",
        "ia"
      ],
      [
        "g",
        "as"
      ],
      [
        "i",
        "dade"
      ],
      [
        "en",
        "h"
      ],
      [
        "cont",
        "ra"
      ],
      [
        "Bent",
        "inho"
      ],
      [
        "E",
        "nt"
      ],
      [
        "N",
        "o"
      ],
      [
        "p",
        "al"
      ],
      [
        "in",
        "u"
      ],
      [
        "da",
        "va"
      ],
      [
        "mes",
        "ma"
      ],
      [
        "est",
        "á"
      ],
      [
        "itu",
        "lo"
      ],
      [
        "i",
        "or"
      ],
      [
        "n",
        "un"
      ],
      [
        "fi",
        "ca"
      ],
      [
        "tar",
        "de"
      ],
      [
        "Jus",
        "tina"
      ],
      [
        "Cos",
        "me"
      ],
      [
        "c",
        "ri"
      ],
      [
        "i",
        "ma"
      ],
      [
        "m",
        "is"
      ],
      [
        "p",
        "h"
      ],
      [
        "s",
        "ou"
      ],
      [
        "v",
        "as"
      ],
      [
        "re",
        "pe"
      ],
      [
        "el",
        "o"
      ],
      [
        "no",
        "it"
      ],
      [
        "pre",
        "cis"
      ],
      [
        "manh",
        "ã"
      ],
      [
        "G",
        "loria"
      ],
      [
        "f",
        "ala"
      ],
      [
        "s",
        "ua"
      ],
      [
        "t",
        "ei"
      ],
      [
        "v",
        "en"
      ],
      [
        "v",
        "esse"
      ],
      [
        "de",
        "i"
      ],
      [
        "in",
        "gu"
      ],
      [
        "to",
        "das"
      ],
      [
        "outra",
        "s"
      ],
      [
        "faz",
        "er"
      ],
      [
        "s",
        "or"
      ],
      [
        "t",
        "ro"
      ],
      [
        "es",
        "que"
      ],
      [
        "es",
        "to"
      ],
      [
        "re",
        "ce"
      ],
      [
        "na",
        "tural"
      ],
      [
        "gu",
        "ei"
      ],
      [
        "lo",
        "n"
      ],
      [
        "Po",
        "is"
      ],
      [
        "E",
        "ze"
      ],
      [
        "O",
        "s"
      ],
      [
        "g",
        "em"
      ],
      [
        "u",
        "me"
      ],
      [
        "v",
        "ei"
      ],
      [
        "v",
        "inha"
      ],
      [
        "ca",
        "ra"
      ],
      [
        "mo",
        "ra"
      ],
      [
        "qui",
        "el"
      ],
      [
        "du",
        "as"
      ],
      [
        "Eze",
        "quiel"
      ],
      [
        "g",
        "re"
      ],
      [
        "l",
        "ei"
      ],
      [
        "á",
        "mos"
      ],
      [
        "que",
        "ria"
      ],
      [
        "in",
        "h"
      ],
      [
        "ri",
        "o"
      ],
      [
        ",",
        "--"
      ],
      [
        "me",
        "nos"
      ],
      [
        "lh",
        "er"
      ],
      [
        "pe",
        "que"
      ],
      [
        "primei",
        "ro"
      ],
      [
        "b",
        "as"
      ],
      [
        "i",
        "ta"
      ],
      [
        "l",
        "ia"
      ],
      [
        "á",
        "ra"
      ],
      [
        "co",
        "me"
      ],
      [
        "al",
        "mente"
      ],
      [
        "el",
        "las"
      ],
      [
        "pel",
        "o"
      ],
      [
        "palav",
        "ra"
      ],
      [
        "Vo",
        "cê"
      ],
      [
        "U",
        "ma"
      ],
      [
        "a",
        "d"
      ],
      [
        "b",
        "us"
      ],
      [
        "i",
        "da"
      ],
      [
        "o",
        "p"
      ],
      [
        "do",
        "u"
      ],
      [
        "se",
        "u"
      ],
      [
        "to",
        "do"
      ],
      [
        "el",
        "les"
      ],
      [
        "vi",
        "r"
      ],
      [
        "sem",
        "pre"
      ],
      [
        "pres",
        "sa"
      ],
      [
        "T",
        "u"
      ],
      [
        "b",
        "i"
      ],
      [
        "c",
        "to"
      ],
      [
        "d",
        "ua"
      ],
      [
        "g",
        "esto"
      ],
      [
        "n",
        "ha"
      ],
      [
        "n",
        "cia"
      ],
      [
        "p",
        "rin"
      ],
      [
        "t",
        "es"
      ],
      [
        "qu",
        "al"
      ],
      [
        "co",
        "ração"
      ],
      [
        "sab",
        "er"
      ],
      [
        "O",
        "u"
      ],
      [
        "a",
        "g"
      ],
      [
        "b",
        "e"
      ],
      [
        "f",
        "ó"
      ],
      [
        "r",
        "er"
      ],
      [
        "u",
        "ra"
      ],
      [
        "ta",
        "mente"
      ],
      [
        "di",
        "as"
      ],
      [
        "cu",
        "r"
      ],
      [
        "prin",
        "ci"
      ],
      [
        "A",
        "o"
      ],
      [
        "S",
        "an"
      ],
      [
        "c",
        "ui"
      ],
      [
        "i",
        "ão"
      ],
      [
        "n",
        "ós"
      ],
      [
        "r",
        "im"
      ],
      [
        "s",
        "ala"
      ],
      [
        "ç",
        "os"
      ],
      [
        "es",
        "sa"
      ],
      [
        "es",
        "tar"
      ],
      [
        "es",
        "cre"
      ],
      [
        "se",
        "nh"
      ],
      [
        "ca",
        "da"
      ],
      [
        "ca",
        "val"
      ],
      [
        "va",
        "mente"
      ],
      [
        "res",
        "to"
      ],
      [
        "cas",
        "o"
      ],
      [
        "Co",
        "mo"
      ],
      [
        "ami",
        "go"
      ],
      [
        "pesso",
        "a"
      ],
      [
        "N",
        "a"
      ],
      [
        "a",
        "u"
      ],
      [
        "c",
        "en"
      ],
      [
        "f",
        "ui"
      ],
      [
        "o",
        "nde"
      ],
      [
        "t",
        "ia"
      ],
      [
        "v",
        "os"
      ],
      [
        "de",
        "pressa"
      ],
      [
        "al",
        "li"
      ],
      [
        "em",
        "os"
      ],
      [
        "ei",
        "ro"
      ],
      [
        "ti",
        "o"
      ],
      [
        "vo",
        "z"
      ],
      [
        "ac",
        "ha"
      ],
      [
        "pen",
        "sa"
      ],
      [
        "prime",
        "ira"
      ],
      [
        "Pa",
        "dua"
      ],
      [
        "vol",
        "ta"
      ],
      [
        "noit",
        "e"
      ],
      [
        "senh",
        "or"
      ],
      [
        "a",
        "ta"
      ],
      [
        "a",
        "bra"
      ],
      [
        "f",
        "le"
      ],
      [
[...]
